#include "magic_wand_model_data.h"

// We need to keep the data array aligned on some architectures.
#ifdef __has_attribute
#define HAVE_ATTRIBUTE(x) __has_attribute(x)
#else
#define HAVE_ATTRIBUTE(x) 0
#endif
#if HAVE_ATTRIBUTE(aligned) || (defined(__GNUC__) && !defined(__clang__))
#define DATA_ALIGN_ATTRIBUTE __attribute__((aligned(4)))
#else
#define DATA_ALIGN_ATTRIBUTE
#endif

const unsigned char g_magic_wand_model_data[] DATA_ALIGN_ATTRIBUTE = {
  // Paste the data of the char array in `src/model.cc` here
  0x1c, 0x00, 0x00, 0x00, 0x54, 0x46, 0x4c, 0x33, 0x14, 0x00, 0x20, 0x00,
  0x04, 0x00, 0x08, 0x00, 0x0c, 0x00, 0x10, 0x00, 0x14, 0x00, 0x00, 0x00,
  0x18, 0x00, 0x1c, 0x00, 0x14, 0x00, 0x00, 0x00, 0x03, 0x00, 0x00, 0x00,
  0x18, 0x00, 0x00, 0x00, 0x2c, 0x00, 0x00, 0x00, 0xd8, 0x00, 0x00, 0x00,
  0x2c, 0x00, 0x00, 0x00, 0x80, 0x00, 0x00, 0x00, 0x78, 0x00, 0x00, 0x00,
  0x05, 0x00, 0x00, 0x00, 0x28, 0x07, 0x00, 0x00, 0x44, 0x06, 0x00, 0x00,
  0xbc, 0x03, 0x00, 0x00, 0xf8, 0x02, 0x00, 0x00, 0xac, 0x01, 0x00, 0x00,
  0x01, 0x00, 0x00, 0x00, 0xd0, 0x00, 0x00, 0x00, 0x14, 0x00, 0x00, 0x00,
  0x98, 0x32, 0x00, 0x00, 0x94, 0x32, 0x00, 0x00, 0x8c, 0x31, 0x00, 0x00,
  0xd8, 0x30, 0x00, 0x00, 0x30, 0x30, 0x00, 0x00, 0xbc, 0x2f, 0x00, 0x00,
  0x50, 0x2f, 0x00, 0x00, 0x00, 0x13, 0x00, 0x00, 0xec, 0x11, 0x00, 0x00,
  0x10, 0x10, 0x00, 0x00, 0xb4, 0x07, 0x00, 0x00, 0x6c, 0x32, 0x00, 0x00,
  0x68, 0x32, 0x00, 0x00, 0x64, 0x32, 0x00, 0x00, 0x60, 0x32, 0x00, 0x00,
  0x5c, 0x32, 0x00, 0x00, 0x58, 0x32, 0x00, 0x00, 0x54, 0x32, 0x00, 0x00,
  0x50, 0x32, 0x00, 0x00, 0x3c, 0x00, 0x00, 0x00, 0x00, 0x00, 0x00, 0x00,
  0x01, 0x00, 0x00, 0x00, 0x0c, 0x00, 0x00, 0x00, 0x08, 0x00, 0x0c, 0x00,
  0x04, 0x00, 0x08, 0x00, 0x08, 0x00, 0x00, 0x00, 0x08, 0x00, 0x00, 0x00,
  0x13, 0x00, 0x00, 0x00, 0x13, 0x00, 0x00, 0x00, 0x6d, 0x69, 0x6e, 0x5f,
  0x72, 0x75, 0x6e, 0x74, 0x69, 0x6d, 0x65, 0x5f, 0x76, 0x65, 0x72, 0x73,
  0x69, 0x6f, 0x6e, 0x00, 0xfa, 0xce, 0xff, 0xff, 0x04, 0x00, 0x00, 0x00,
  0x10, 0x00, 0x00, 0x00, 0x31, 0x2e, 0x35, 0x2e, 0x30, 0x00, 0x00, 0x00,
  0x00, 0x00, 0x00, 0x00, 0x00, 0x00, 0x00, 0x00, 0x0f, 0x00, 0x00, 0x00,
  0x4d, 0x4c, 0x49, 0x52, 0x20, 0x43, 0x6f, 0x6e, 0x76, 0x65, 0x72, 0x74,
  0x65, 0x64, 0x2e, 0x00, 0x00, 0x00, 0x0e, 0x00, 0x18, 0x00, 0x04, 0x00,
  0x08, 0x00, 0x0c, 0x00, 0x10, 0x00, 0x14, 0x00, 0x0e, 0x00, 0x00, 0x00,
  0x14, 0x00, 0x00, 0x00, 0x5c, 0x00, 0x00, 0x00, 0x60, 0x00, 0x00, 0x00,
  0x64, 0x00, 0x00, 0x00, 0x84, 0x00, 0x00, 0x00, 0x12, 0x00, 0x00, 0x00,
  0x58, 0x31, 0x00, 0x00, 0xe8, 0x30, 0x00, 0x00, 0x44, 0x30, 0x00, 0x00,
  0x9c, 0x2f, 0x00, 0x00, 0xf4, 0x2e, 0x00, 0x00, 0x94, 0x2e, 0x00, 0x00,
  0x2c, 0x2e, 0x00, 0x00, 0xd8, 0x11, 0x00, 0x00, 0xbc, 0x10, 0x00, 0x00,
  0xe0, 0x0e, 0x00, 0x00, 0x0c, 0x06, 0x00, 0x00, 0x28, 0x05, 0x00, 0x00,
  0xe8, 0x03, 0x00, 0x00, 0x3c, 0x03, 0x00, 0x00, 0x98, 0x02, 0x00, 0x00,
  0xd4, 0x01, 0x00, 0x00, 0x10, 0x01, 0x00, 0x00, 0x84, 0x00, 0x00, 0x00,
  0x01, 0x00, 0x00, 0x00, 0x00, 0x00, 0x00, 0x00, 0x01, 0x00, 0x00, 0x00,
  0x11, 0x00, 0x00, 0x00, 0x08, 0x00, 0x00, 0x00, 0x74, 0x05, 0x00, 0x00,
  0x94, 0x04, 0x00, 0x00, 0x78, 0x03, 0x00, 0x00, 0xbc, 0x02, 0x00, 0x00,
  0x30, 0x02, 0x00, 0x00, 0x50, 0x01, 0x00, 0x00, 0xa8, 0x00, 0x00, 0x00,
  0x10, 0x00, 0x00, 0x00, 0x04, 0x00, 0x00, 0x00, 0x6d, 0x61, 0x69, 0x6e,
  0x00, 0x00, 0x00, 0x00, 0x7a, 0xff, 0xff, 0xff, 0x00, 0x00, 0x00, 0x09,
  0x04, 0x00, 0x00, 0x00, 0x1c, 0x00, 0x00, 0x00, 0x10, 0x00, 0x00, 0x00,
  0x04, 0x00, 0x00, 0x00, 0xf6, 0xcf, 0xff, 0xff, 0x00, 0x00, 0x80, 0x3f,
  0x01, 0x00, 0x00, 0x00, 0x11, 0x00, 0x00, 0x00, 0x01, 0x00, 0x00, 0x00,
  0x10, 0x00, 0x00, 0x00, 0xa0, 0xfa, 0xff, 0xff, 0x19, 0x00, 0x00, 0x00,
  0x00, 0x00, 0x00, 0x19, 0x01, 0x00, 0x00, 0x00, 0x84, 0xcf, 0xff, 0xff,
  0x14, 0x00, 0x00, 0x00, 0x12, 0x00, 0x00, 0x00, 0x18, 0x00, 0x00, 0x00,
  0x30, 0x00, 0x00, 0x00, 0x20, 0x00, 0x00, 0x00, 0x02, 0x00, 0x00, 0x00,
  0x01, 0x00, 0x00, 0x00, 0x03, 0x00, 0x00, 0x00, 0x08, 0x00, 0x00, 0x00,
  0x49, 0x64, 0x65, 0x6e, 0x74, 0x69, 0x74, 0x79, 0x00, 0x00, 0x00, 0x00,
  0x02, 0x00, 0x00, 0x00, 0xff, 0xff, 0xff, 0xff, 0x03, 0x00, 0x00, 0x00,
  0x68, 0xd0, 0xff, 0xff, 0x00, 0x00, 0x0e, 0x00, 0x18, 0x00, 0x08, 0x00,
  0x0c, 0x00, 0x10, 0x00, 0x07, 0x00, 0x14, 0x00, 0x0e, 0x00, 0x00, 0x00,
  0x00, 0x00, 0x00, 0x08, 0x03, 0x00, 0x00, 0x00, 0x18, 0x00, 0x00, 0x00,
  0x0c, 0x00, 0x00, 0x00, 0x04, 0x00, 0x00, 0x00, 0x84, 0xcf, 0xff, 0xff,
  0x01, 0x00, 0x00, 0x00, 0x10, 0x00, 0x00, 0x00, 0x03, 0x00, 0x00, 0x00,
  0x0f, 0x00, 0x00, 0x00, 0x07, 0x00, 0x00, 0x00, 0x04, 0x00, 0x00, 0x00,
  0x0c, 0xd0, 0xff, 0xff, 0x14, 0x00, 0x00, 0x00, 0x11, 0x00, 0x00, 0x00,
  0x18, 0x00, 0x00, 0x00, 0x5c, 0x00, 0x00, 0x00, 0x4c, 0x00, 0x00, 0x00,
  0x02, 0x00, 0x00, 0x00, 0x01, 0x00, 0x00, 0x00, 0x03, 0x00, 0x00, 0x00,
  0x34, 0x00, 0x00, 0x00, 0x73, 0x65, 0x71, 0x75, 0x65, 0x6e, 0x74, 0x69,
  0x61, 0x6c, 0x2f, 0x64, 0x65, 0x6e, 0x73, 0x65, 0x5f, 0x31, 0x2f, 0x4d,
  0x61, 0x74, 0x4d, 0x75, 0x6c, 0x3b, 0x73, 0x65, 0x71, 0x75, 0x65, 0x6e,
  0x74, 0x69, 0x61, 0x6c, 0x2f, 0x64, 0x65, 0x6e, 0x73, 0x65, 0x5f, 0x31,
  0x2f, 0x42, 0x69, 0x61, 0x73, 0x41, 0x64, 0x64, 0x00, 0x00, 0x00, 0x00,
  0x02, 0x00, 0x00, 0x00, 0xff, 0xff, 0xff, 0xff, 0x03, 0x00, 0x00, 0x00,
  0x0c, 0xd0, 0xff, 0xff, 0xda, 0xfc, 0xff, 0xff, 0x00, 0x00, 0x00, 0x08,
  0x03, 0x00, 0x00, 0x00, 0x24, 0x00, 0x00, 0x00, 0x18, 0x00, 0x00, 0x00,
  0x0c, 0x00, 0x00, 0x00, 0x00, 0x00, 0x06, 0x00, 0x08, 0x00, 0x07, 0x00,
  0x06, 0x00, 0x00, 0x00, 0x00, 0x00, 0x00, 0x01, 0x01, 0x00, 0x00, 0x00,
  0x0f, 0x00, 0x00, 0x00, 0x03, 0x00, 0x00, 0x00, 0x0e, 0x00, 0x00, 0x00,
  0x06, 0x00, 0x00, 0x00, 0x03, 0x00, 0x00, 0x00, 0xe8, 0xfb, 0xff, 0xff,
  0x09, 0x00, 0x00, 0x00, 0x00, 0x00, 0x00, 0x09, 0x01, 0x00, 0x00, 0x00,
  0xcc, 0xd0, 0xff, 0xff, 0x14, 0x00, 0x00, 0x00, 0x10, 0x00, 0x00, 0x00,
  0x18, 0x00, 0x00, 0x00, 0x6c, 0x00, 0x00, 0x00, 0x5c, 0x00, 0x00, 0x00,
  0x02, 0x00, 0x00, 0x00, 0x01, 0x00, 0x00, 0x00, 0x10, 0x00, 0x00, 0x00,
  0x46, 0x00, 0x00, 0x00, 0x73, 0x65, 0x71, 0x75, 0x65, 0x6e, 0x74, 0x69,
  0x61, 0x6c, 0x2f, 0x64, 0x65, 0x6e, 0x73, 0x65, 0x2f, 0x4d, 0x61, 0x74,
  0x4d, 0x75, 0x6c, 0x3b, 0x73, 0x65, 0x71, 0x75, 0x65, 0x6e, 0x74, 0x69,
  0x61, 0x6c, 0x2f, 0x64, 0x65, 0x6e, 0x73, 0x65, 0x2f, 0x52, 0x65, 0x6c,
  0x75, 0x3b, 0x73, 0x65, 0x71, 0x75, 0x65, 0x6e, 0x74, 0x69, 0x61, 0x6c,
  0x2f, 0x64, 0x65, 0x6e, 0x73, 0x65, 0x2f, 0x42, 0x69, 0x61, 0x73, 0x41,
  0x64, 0x64, 0x00, 0x00, 0x02, 0x00, 0x00, 0x00, 0xff, 0xff, 0xff, 0xff,
  0x10, 0x00, 0x00, 0x00, 0xec, 0xd1, 0xff, 0xff, 0x00, 0x00, 0x0a, 0x00,
  0x10, 0x00, 0x04, 0x00, 0x08, 0x00, 0x0c, 0x00, 0x0a, 0x00, 0x00, 0x00,
  0x02, 0x00, 0x00, 0x00, 0x10, 0x00, 0x00, 0x00, 0x04, 0x00, 0x00, 0x00,
  0x01, 0x00, 0x00, 0x00, 0x0e, 0x00, 0x00, 0x00, 0x02, 0x00, 0x00, 0x00,
  0x0d, 0x00, 0x00, 0x00, 0x05, 0x00, 0x00, 0x00, 0xa8, 0xfc, 0xff, 0xff,
  0x16, 0x00, 0x00, 0x00, 0x00, 0x00, 0x00, 0x16, 0x01, 0x00, 0x00, 0x00,
  0x8c, 0xd1, 0xff, 0xff, 0x14, 0x00, 0x00, 0x00, 0x0f, 0x00, 0x00, 0x00,
  0x18, 0x00, 0x00, 0x00, 0x40, 0x00, 0x00, 0x00, 0x30, 0x00, 0x00, 0x00,
  0x02, 0x00, 0x00, 0x00, 0x01, 0x00, 0x00, 0x00, 0x70, 0x00, 0x00, 0x00,
  0x1a, 0x00, 0x00, 0x00, 0x73, 0x65, 0x71, 0x75, 0x65, 0x6e, 0x74, 0x69,
  0x61, 0x6c, 0x2f, 0x66, 0x6c, 0x61, 0x74, 0x74, 0x65, 0x6e, 0x2f, 0x52,
  0x65, 0x73, 0x68, 0x61, 0x70, 0x65, 0x00, 0x00, 0x02, 0x00, 0x00, 0x00,
  0xff, 0xff, 0xff, 0xff, 0x70, 0x00, 0x00, 0x00, 0x70, 0xd1, 0xff, 0xff,
  0x3e, 0xfe, 0xff, 0xff, 0x00, 0x00, 0x00, 0x05, 0x01, 0x00, 0x00, 0x00,
  0x38, 0x00, 0x00, 0x00, 0x2c, 0x00, 0x00, 0x00, 0x14, 0x00, 0x00, 0x00,
  0x00, 0x00, 0x0e, 0x00, 0x14, 0x00, 0x00, 0x00, 0x10, 0x00, 0x0c, 0x00,
  0x08, 0x00, 0x04, 0x00, 0x0e, 0x00, 0x00, 0x00, 0x03, 0x00, 0x00, 0x00,
  0x01, 0x00, 0x00, 0x00, 0x03, 0x00, 0x00, 0x00, 0x01, 0x00, 0x00, 0x00,
  0x01, 0x00, 0x00, 0x00, 0x0d, 0x00, 0x00, 0x00, 0x01, 0x00, 0x00, 0x00,
  0x0c, 0x00, 0x00, 0x00, 0x2c, 0xd2, 0xff, 0xff, 0x14, 0x00, 0x00, 0x00,
  0x0e, 0x00, 0x00, 0x00, 0x20, 0x00, 0x00, 0x00, 0x58, 0x00, 0x00, 0x00,
  0x40, 0x00, 0x00, 0x00, 0x04, 0x00, 0x00, 0x00, 0x01, 0x00, 0x00, 0x00,
  0x07, 0x00, 0x00, 0x00, 0x01, 0x00, 0x00, 0x00, 0x10, 0x00, 0x00, 0x00,
  0x22, 0x00, 0x00, 0x00, 0x73, 0x65, 0x71, 0x75, 0x65, 0x6e, 0x74, 0x69,
  0x61, 0x6c, 0x2f, 0x6d, 0x61, 0x78, 0x5f, 0x70, 0x6f, 0x6f, 0x6c, 0x69,
  0x6e, 0x67, 0x32, 0x64, 0x5f, 0x31, 0x2f, 0x4d, 0x61, 0x78, 0x50, 0x6f,
  0x6f, 0x6c, 0x00, 0x00, 0x04, 0x00, 0x00, 0x00, 0xff, 0xff, 0xff, 0xff,
  0x07, 0x00, 0x00, 0x00, 0x01, 0x00, 0x00, 0x00, 0x10, 0x00, 0x00, 0x00,
  0x28, 0xd2, 0xff, 0xff, 0x1a, 0xfe, 0xff, 0xff, 0x00, 0x00, 0x00, 0x01,
  0x24, 0x00, 0x00, 0x00, 0x18, 0x00, 0x00, 0x00, 0x04, 0x00, 0x00, 0x00,
  0x0c, 0xfe, 0xff, 0xff, 0x01, 0x00, 0x00, 0x00, 0x01, 0x00, 0x00, 0x00,
  0x00, 0x00, 0x00, 0x01, 0x01, 0x00, 0x00, 0x00, 0x0c, 0x00, 0x00, 0x00,
  0x03, 0x00, 0x00, 0x00, 0x0b, 0x00, 0x00, 0x00, 0x09, 0x00, 0x00, 0x00,
  0x02, 0x00, 0x00, 0x00, 0xd4, 0xd2, 0xff, 0xff, 0x14, 0x00, 0x00, 0x00,
  0x0d, 0x00, 0x00, 0x00, 0x20, 0x00, 0x00, 0x00, 0xb8, 0x00, 0x00, 0x00,
  0xa0, 0x00, 0x00, 0x00, 0x04, 0x00, 0x00, 0x00, 0x01, 0x00, 0x00, 0x00,
  0x15, 0x00, 0x00, 0x00, 0x01, 0x00, 0x00, 0x00, 0x10, 0x00, 0x00, 0x00,
  0x83, 0x00, 0x00, 0x00, 0x73, 0x65, 0x71, 0x75, 0x65, 0x6e, 0x74, 0x69,
  0x61, 0x6c, 0x2f, 0x63, 0x6f, 0x6e, 0x76, 0x32, 0x64, 0x5f, 0x31, 0x2f,
  0x52, 0x65, 0x6c, 0x75, 0x3b, 0x73, 0x65, 0x71, 0x75, 0x65, 0x6e, 0x74,
  0x69, 0x61, 0x6c, 0x2f, 0x63, 0x6f, 0x6e, 0x76, 0x32, 0x64, 0x5f, 0x31,
  0x2f, 0x42, 0x69, 0x61, 0x73, 0x41, 0x64, 0x64, 0x3b, 0x73, 0x65, 0x71,
  0x75, 0x65, 0x6e, 0x74, 0x69, 0x61, 0x6c, 0x2f, 0x63, 0x6f, 0x6e, 0x76,
  0x32, 0x64, 0x5f, 0x31, 0x2f, 0x43, 0x6f, 0x6e, 0x76, 0x32, 0x44, 0x3b,
  0x73, 0x65, 0x71, 0x75, 0x65, 0x6e, 0x74, 0x69, 0x61, 0x6c, 0x2f, 0x63,
  0x6f, 0x6e, 0x76, 0x32, 0x64, 0x5f, 0x31, 0x2f, 0x42, 0x69, 0x61, 0x73,
  0x41, 0x64, 0x64, 0x2f, 0x52, 0x65, 0x61, 0x64, 0x56, 0x61, 0x72, 0x69,
  0x61, 0x62, 0x6c, 0x65, 0x4f, 0x70, 0x2f, 0x72, 0x65, 0x73, 0x6f, 0x75,
  0x72, 0x63, 0x65, 0x00, 0x04, 0x00, 0x00, 0x00, 0xff, 0xff, 0xff, 0xff,
  0x15, 0x00, 0x00, 0x00, 0x01, 0x00, 0x00, 0x00, 0x10, 0x00, 0x00, 0x00,
  0x40, 0xd4, 0xff, 0xff, 0x00, 0x00, 0x0e, 0x00, 0x1a, 0x00, 0x08, 0x00,
  0x0c, 0x00, 0x10, 0x00, 0x07, 0x00, 0x14, 0x00, 0x0e, 0x00, 0x00, 0x00,
  0x00, 0x00, 0x00, 0x05, 0x01, 0x00, 0x00, 0x00, 0x3c, 0x00, 0x00, 0x00,
  0x30, 0x00, 0x00, 0x00, 0x14, 0x00, 0x00, 0x00, 0x00, 0x00, 0x0e, 0x00,
  0x18, 0x00, 0x17, 0x00, 0x10, 0x00, 0x0c, 0x00, 0x08, 0x00, 0x04, 0x00,
  0x0e, 0x00, 0x00, 0x00, 0x03, 0x00, 0x00, 0x00, 0x03, 0x00, 0x00, 0x00,
  0x03, 0x00, 0x00, 0x00, 0x03, 0x00, 0x00, 0x00, 0x00, 0x00, 0x00, 0x01,
  0x01, 0x00, 0x00, 0x00, 0x0b, 0x00, 0x00, 0x00, 0x01, 0x00, 0x00, 0x00,
  0x0a, 0x00, 0x00, 0x00, 0x2c, 0xff, 0xff, 0xff, 0x11, 0x00, 0x00, 0x00,
  0x00, 0x00, 0x00, 0x11, 0x01, 0x00, 0x00, 0x00, 0x10, 0xd4, 0xff, 0xff,
  0x14, 0x00, 0x00, 0x00, 0x0c, 0x00, 0x00, 0x00, 0x20, 0x00, 0x00, 0x00,
  0x58, 0x00, 0x00, 0x00, 0x40, 0x00, 0x00, 0x00, 0x04, 0x00, 0x00, 0x00,
  0x01, 0x00, 0x00, 0x00, 0x15, 0x00, 0x00, 0x00, 0x01, 0x00, 0x00, 0x00,
  0x08, 0x00, 0x00, 0x00, 0x20, 0x00, 0x00, 0x00, 0x73, 0x65, 0x71, 0x75,
  0x65, 0x6e, 0x74, 0x69, 0x61, 0x6c, 0x2f, 0x6d, 0x61, 0x78, 0x5f, 0x70,
  0x6f, 0x6f, 0x6c, 0x69, 0x6e, 0x67, 0x32, 0x64, 0x2f, 0x4d, 0x61, 0x78,
  0x50, 0x6f, 0x6f, 0x6c, 0x00, 0x00, 0x00, 0x00, 0x04, 0x00, 0x00, 0x00,
  0xff, 0xff, 0xff, 0xff, 0x15, 0x00, 0x00, 0x00, 0x01, 0x00, 0x00, 0x00,
  0x08, 0x00, 0x00, 0x00, 0x1c, 0xd5, 0xff, 0xff, 0x00, 0x00, 0x0e, 0x00,
  0x14, 0x00, 0x00, 0x00, 0x08, 0x00, 0x0c, 0x00, 0x07, 0x00, 0x10, 0x00,
  0x0e, 0x00, 0x00, 0x00, 0x00, 0x00, 0x00, 0x01, 0x30, 0x00, 0x00, 0x00,
  0x24, 0x00, 0x00, 0x00, 0x10, 0x00, 0x00, 0x00, 0x0c, 0x00, 0x10, 0x00,
  0x00, 0x00, 0x04, 0x00, 0x08, 0x00, 0x0f, 0x00, 0x0c, 0x00, 0x00, 0x00,
  0x01, 0x00, 0x00, 0x00, 0x01, 0x00, 0x00, 0x00, 0x00, 0x00, 0x00, 0x01,
  0x01, 0x00, 0x00, 0x00, 0x0a, 0x00, 0x00, 0x00, 0x03, 0x00, 0x00, 0x00,
  0x00, 0x00, 0x00, 0x00, 0x08, 0x00, 0x00, 0x00, 0x01, 0x00, 0x00, 0x00,
  0x0c, 0x00, 0x10, 0x00, 0x0b, 0x00, 0x00, 0x00, 0x0c, 0x00, 0x04, 0x00,
  0x0c, 0x00, 0x00, 0x00, 0x03, 0x00, 0x00, 0x00, 0x00, 0x00, 0x00, 0x03,
  0x01, 0x00, 0x00, 0x00, 0xf0, 0xd4, 0xff, 0xff, 0x14, 0x00, 0x00, 0x00,
  0x0b, 0x00, 0x00, 0x00, 0x20, 0x00, 0x00, 0x00, 0xb0, 0x00, 0x00, 0x00,
  0x98, 0x00, 0x00, 0x00, 0x04, 0x00, 0x00, 0x00, 0x01, 0x00, 0x00, 0x00,
  0x40, 0x00, 0x00, 0x00, 0x03, 0x00, 0x00, 0x00, 0x08, 0x00, 0x00, 0x00,
  0x7b, 0x00, 0x00, 0x00, 0x73, 0x65, 0x71, 0x75, 0x65, 0x6e, 0x74, 0x69,
  0x61, 0x6c, 0x2f, 0x63, 0x6f, 0x6e, 0x76, 0x32, 0x64, 0x2f, 0x52, 0x65,
  0x6c, 0x75, 0x3b, 0x73, 0x65, 0x71, 0x75, 0x65, 0x6e, 0x74, 0x69, 0x61,
  0x6c, 0x2f, 0x63, 0x6f, 0x6e, 0x76, 0x32, 0x64, 0x2f, 0x42, 0x69, 0x61,
  0x73, 0x41, 0x64, 0x64, 0x3b, 0x73, 0x65, 0x71, 0x75, 0x65, 0x6e, 0x74,
  0x69, 0x61, 0x6c, 0x2f, 0x63, 0x6f, 0x6e, 0x76, 0x32, 0x64, 0x2f, 0x43,
  0x6f, 0x6e, 0x76, 0x32, 0x44, 0x3b, 0x73, 0x65, 0x71, 0x75, 0x65, 0x6e,
  0x74, 0x69, 0x61, 0x6c, 0x2f, 0x63, 0x6f, 0x6e, 0x76, 0x32, 0x64, 0x2f,
  0x42, 0x69, 0x61, 0x73, 0x41, 0x64, 0x64, 0x2f, 0x52, 0x65, 0x61, 0x64,
  0x56, 0x61, 0x72, 0x69, 0x61, 0x62, 0x6c, 0x65, 0x4f, 0x70, 0x2f, 0x72,
  0x65, 0x73, 0x6f, 0x75, 0x72, 0x63, 0x65, 0x00, 0x04, 0x00, 0x00, 0x00,
  0xff, 0xff, 0xff, 0xff, 0x40, 0x00, 0x00, 0x00, 0x03, 0x00, 0x00, 0x00,
  0x08, 0x00, 0x00, 0x00, 0x44, 0xd5, 0xff, 0xff, 0x4e, 0xd6, 0xff, 0xff,
  0x04, 0x00, 0x00, 0x00, 0x00, 0x08, 0x00, 0x00, 0x6a, 0x0a, 0xc0, 0xbd,
  0x44, 0x6e, 0xc5, 0xbc, 0x51, 0xec, 0x96, 0xbe, 0xdb, 0xe7, 0xb7, 0xbd,
  0xc8, 0x23, 0xbc, 0xbc, 0xdb, 0x2a, 0xc5, 0xbe, 0xd7, 0x32, 0x3c, 0xbe,
  0x80, 0xd9, 0x69, 0x3f, 0x65, 0xf1, 0xba, 0x3d, 0x18, 0xcf, 0x4c, 0xbd,
  0x86, 0xa7, 0xae, 0x3e, 0x06, 0xc3, 0x63, 0xbd, 0x88, 0x3c, 0x1a, 0x3d,
  0x9d, 0x01, 0x9a, 0xbe, 0x08, 0xd9, 0x16, 0xbe, 0x49, 0x67, 0x98, 0xbd,
  0x70, 0xb0, 0xf1, 0xbd, 0xb4, 0x38, 0x8d, 0xbb, 0x12, 0xce, 0x27, 0x3e,
  0xd3, 0x81, 0x51, 0x3e, 0xf8, 0x61, 0x85, 0xbd, 0xe8, 0x56, 0x96, 0xbd,
  0xfe, 0x0d, 0x18, 0xbe, 0x46, 0xfd, 0x2a, 0xbf, 0x3f, 0xb9, 0xa7, 0xbd,
  0xb7, 0x13, 0x85, 0x3d, 0xf4, 0xd3, 0x86, 0x3d, 0x14, 0x9e, 0x42, 0x3d,
  0x0b, 0xa1, 0x54, 0xbd, 0xcb, 0x3e, 0x41, 0x3e, 0x8f, 0xfb, 0x3d, 0x3d,
  0x11, 0x82, 0x5b, 0xbe, 0xf6, 0xd1, 0x5f, 0xbe, 0x41, 0x6c, 0xd9, 0xbd,
  0x2e, 0x33, 0xb6, 0xbb, 0xee, 0x17, 0xb2, 0xbd, 0xcb, 0x3e, 0x4c, 0xbe,
  0x2c, 0x71, 0x45, 0x3e, 0xa8, 0xf9, 0x09, 0x3e, 0x41, 0xba, 0xa8, 0xbc,
  0x14, 0x0b, 0x47, 0x3e, 0xc2, 0x5f, 0x17, 0xbe, 0x05, 0x79, 0x6b, 0x3e,
  0x5a, 0x7b, 0xf4, 0xbe, 0xc1, 0xa6, 0x41, 0x3c, 0x8b, 0x0c, 0x1d, 0xbe,
  0x1c, 0xa8, 0xb8, 0xbd, 0x13, 0x99, 0x44, 0x3e, 0x96, 0x0e, 0x74, 0x3e,
  0x2f, 0x0f, 0x44, 0xbd, 0xbd, 0xd3, 0x96, 0x3d, 0x46, 0x01, 0xec, 0x3d,
  0x6b, 0xa7, 0xc3, 0x3d, 0xda, 0xc2, 0x83, 0xbd, 0xbd, 0x36, 0xa2, 0x3d,
  0x10, 0x72, 0xd0, 0x3d, 0x68, 0x1c, 0xc3, 0xbc, 0xbc, 0x6e, 0x01, 0xbe,
  0x17, 0x35, 0xc3, 0xbe, 0x17, 0x0c, 0x64, 0xbe, 0x0e, 0xb9, 0xc8, 0xbd,
  0xa9, 0xa0, 0x03, 0xbe, 0x49, 0xb9, 0xfb, 0xbd, 0x33, 0xdf, 0xe5, 0xbe,
  0xbe, 0xda, 0x97, 0x3e, 0xd2, 0x2a, 0x9f, 0xbd, 0x9c, 0x6e, 0x3c, 0x3e,
  0x7d, 0x62, 0x88, 0x3e, 0x82, 0xa9, 0x97, 0xbd, 0x0d, 0xd9, 0xe9, 0xbd,
  0xe4, 0x5b, 0x3d, 0xbe, 0xae, 0x84, 0xfc, 0xbd, 0x50, 0xa6, 0xfd, 0xbe,
  0x22, 0x74, 0xf2, 0xbc, 0x1c, 0xc9, 0xb9, 0x3e, 0x66, 0xb3, 0x97, 0x3d,
  0x6e, 0xae, 0xe2, 0xbe, 0xf7, 0xe8, 0xbf, 0x3c, 0xbd, 0x42, 0x9c, 0xbd,
  0x7b, 0xf1, 0x57, 0xbe, 0x27, 0xab, 0x2f, 0xbf, 0x94, 0xf1, 0x30, 0x3d,
  0x14, 0x9d, 0x03, 0x3f, 0xfb, 0xc5, 0x80, 0xbd, 0x75, 0x05, 0x0a, 0xbe,
  0x91, 0x26, 0xdd, 0x3d, 0x50, 0xcb, 0x28, 0x3d, 0x7e, 0x50, 0x34, 0x3e,
  0x9c, 0x68, 0x0e, 0xbf, 0xbc, 0xde, 0x00, 0xbd, 0xdb, 0xf7, 0xa0, 0xbe,
  0xb9, 0x38, 0x20, 0xbf, 0x2d, 0x0a, 0xf1, 0x3c, 0x32, 0x19, 0x67, 0xbd,
  0xf5, 0x03, 0x2b, 0x3e, 0x7f, 0x0c, 0x55, 0x3e, 0xf6, 0x1b, 0x31, 0x3e,
  0x26, 0x3a, 0xcc, 0x3c, 0x79, 0xaf, 0xcf, 0x3d, 0x80, 0x03, 0xc0, 0xbd,
  0xfe, 0xa8, 0x0f, 0xbd, 0x8f, 0x6a, 0x9c, 0x3c, 0x4f, 0x1a, 0x49, 0x3e,
  0x62, 0xb6, 0x52, 0x3e, 0xaf, 0x15, 0xa2, 0xbd, 0xc9, 0xa3, 0x2f, 0x3d,
  0x62, 0x62, 0xde, 0x3d, 0xc9, 0xa4, 0x21, 0xbc, 0xa2, 0x39, 0x05, 0x3d,
  0xf8, 0x01, 0x19, 0xba, 0x9e, 0xaf, 0x6d, 0x3e, 0x09, 0xde, 0x96, 0x3c,
  0x29, 0xdc, 0x2f, 0xbc, 0xdd, 0x52, 0x78, 0x3d, 0xd6, 0x40, 0x0a, 0xbe,
  0xa0, 0x96, 0x89, 0x3d, 0x9b, 0x3b, 0x6b, 0xbd, 0x63, 0x70, 0x6e, 0x3e,
  0x64, 0xd8, 0x06, 0xbe, 0xdd, 0x85, 0xb5, 0x3d, 0x8c, 0xbe, 0x8d, 0x3d,
  0x4d, 0xdc, 0x03, 0x3d, 0xa5, 0x4d, 0x59, 0xbd, 0xef, 0xe9, 0xb2, 0xbc,
  0x53, 0x3e, 0x7d, 0xbd, 0x9f, 0x15, 0x88, 0x3b, 0xf8, 0xf3, 0x84, 0x3c,
  0xf1, 0x6a, 0x95, 0xbd, 0x5a, 0xcd, 0x9b, 0xbe, 0x1c, 0x37, 0x8b, 0x3d,
  0x0b, 0x40, 0xb2, 0x3e, 0xee, 0x47, 0x33, 0xbd, 0x65, 0x55, 0xc0, 0xbe,
  0xe3, 0xb8, 0x4c, 0x3e, 0xfc, 0xee, 0x8b, 0x3d, 0x83, 0xba, 0x11, 0x3f,
  0xa2, 0xab, 0xac, 0xbe, 0x63, 0x4b, 0xcc, 0xbd, 0x3c, 0x79, 0xf7, 0x3c,
  0x64, 0xb9, 0x33, 0xbe, 0x2b, 0x21, 0x32, 0xbe, 0xdd, 0x57, 0xe3, 0xbd,
  0x53, 0x43, 0xf7, 0x3e, 0xcc, 0x7d, 0xc8, 0xbd, 0xc6, 0x80, 0x33, 0xbe,
  0xdf, 0xc7, 0x04, 0xbe, 0xd7, 0x60, 0xb6, 0xbe, 0xb6, 0xcb, 0x4c, 0xbd,
  0x35, 0xfc, 0x31, 0x3c, 0x98, 0xe9, 0x17, 0xbe, 0x00, 0xe0, 0x4f, 0xbe,
  0x50, 0xf4, 0x88, 0x3d, 0xed, 0x77, 0x06, 0x3d, 0x21, 0x39, 0x20, 0xbe,
  0x38, 0x68, 0xb9, 0xbe, 0x90, 0x54, 0x12, 0x3e, 0x1a, 0x27, 0x4c, 0x3e,
  0xac, 0xfd, 0x65, 0xbe, 0xa3, 0x1f, 0x87, 0xbe, 0xb2, 0x23, 0xa9, 0x3d,
  0x1f, 0xf6, 0x8f, 0x3c, 0x38, 0xff, 0xfe, 0x3d, 0x18, 0x95, 0x7c, 0xbe,
  0x94, 0x38, 0xf4, 0xbd, 0xb5, 0x51, 0x17, 0x3d, 0x70, 0x5a, 0x92, 0xbe,
  0xfe, 0x35, 0x65, 0x3d, 0xfe, 0x06, 0x2e, 0xbe, 0x37, 0x5f, 0x31, 0xbe,
  0xac, 0x8a, 0x11, 0x3e, 0x29, 0x64, 0x08, 0x3d, 0xe5, 0x73, 0x15, 0x3e,
  0xf0, 0x7f, 0xac, 0x3d, 0xa3, 0x0e, 0x20, 0xbe, 0x12, 0xae, 0xf2, 0xbb,
  0xfd, 0xb4, 0x0d, 0xbe, 0x6d, 0x22, 0x8c, 0xbe, 0x1d, 0xfd, 0x47, 0xbe,
  0xd4, 0x45, 0x0f, 0xbe, 0xf9, 0xa3, 0x6a, 0xbe, 0x0a, 0x63, 0x25, 0xbe,
  0x90, 0x33, 0x21, 0x3e, 0x89, 0xdd, 0xdc, 0xbe, 0x50, 0xb1, 0xa3, 0xbd,
  0x76, 0xda, 0x4b, 0xbe, 0xa3, 0xdd, 0x36, 0xbd, 0x41, 0x8b, 0x3f, 0xbe,
  0x4d, 0x99, 0x1a, 0x3d, 0x22, 0x0f, 0xa7, 0x3c, 0x65, 0x8f, 0xdf, 0xbd,
  0x2d, 0xc5, 0xb3, 0xbe, 0xb8, 0xc5, 0x83, 0x3d, 0xe2, 0x45, 0x48, 0xbd,
  0x47, 0x07, 0x0d, 0xbe, 0x58, 0xea, 0x8d, 0xbe, 0x46, 0xc4, 0x52, 0xbd,
  0x18, 0x3a, 0xc9, 0xbd, 0xeb, 0x74, 0x84, 0xbd, 0x8e, 0x8b, 0x45, 0x3d,
  0xd8, 0x5c, 0x82, 0x3e, 0x19, 0x1d, 0x00, 0xbe, 0xa6, 0x43, 0x85, 0xbe,
  0xc2, 0x2c, 0x57, 0xbd, 0xcf, 0xf0, 0x8b, 0xbe, 0xb5, 0x97, 0x22, 0xbe,
  0x24, 0x13, 0x15, 0xbe, 0x2b, 0xb7, 0x1f, 0xbc, 0x2b, 0xd6, 0x10, 0xbb,
  0xb4, 0xc1, 0x03, 0xbe, 0x0a, 0x85, 0x33, 0xbe, 0x3c, 0xfe, 0x5a, 0xbd,
  0x78, 0x89, 0xa4, 0x3c, 0x94, 0xf8, 0x14, 0xbe, 0x62, 0x51, 0xb9, 0x3e,
  0x27, 0x55, 0xf3, 0x3c, 0x7c, 0x27, 0x89, 0xbd, 0xe1, 0xb4, 0xd8, 0xbe,
  0xda, 0xb4, 0x3e, 0xbe, 0x6d, 0xa0, 0x36, 0xbe, 0x49, 0x54, 0x7b, 0xbe,
  0x4e, 0x7c, 0x22, 0xbe, 0x6e, 0xec, 0xa0, 0xbd, 0xfb, 0x9b, 0x99, 0x3d,
  0x14, 0xf5, 0xfb, 0xbd, 0xfb, 0xce, 0x29, 0xbe, 0x87, 0x8b, 0xb4, 0x3e,
  0x1d, 0x36, 0x97, 0xbe, 0x53, 0xe3, 0x19, 0xbe, 0x85, 0x46, 0xb4, 0xbd,
  0x8b, 0x76, 0xa7, 0xbd, 0x7e, 0x39, 0x30, 0x3e, 0xf0, 0x80, 0x29, 0xbe,
  0xaa, 0x43, 0xc0, 0xbd, 0x1c, 0x30, 0x9d, 0xbd, 0x63, 0x06, 0x7f, 0xbe,
  0xf1, 0x96, 0x1c, 0xbe, 0xbc, 0xf1, 0x10, 0xbe, 0xad, 0xe2, 0xd5, 0xbd,
  0x80, 0xe1, 0x0a, 0xbe, 0xd2, 0x9a, 0x91, 0xbd, 0x08, 0x24, 0x38, 0xbd,
  0xa7, 0x6a, 0xf0, 0x3d, 0xd8, 0xc9, 0xba, 0x3d, 0xcf, 0x0f, 0xd3, 0xb9,
  0x34, 0x46, 0x0c, 0xbe, 0x15, 0x2a, 0x3a, 0xbe, 0xc3, 0x4b, 0xde, 0xbc,
  0x57, 0xf1, 0xa9, 0xbd, 0x10, 0x19, 0x6b, 0xbd, 0xbd, 0x30, 0xfc, 0x3d,
  0x31, 0x5e, 0xc6, 0x3c, 0xc8, 0x90, 0xc7, 0xbd, 0x45, 0x12, 0x67, 0xbe,
  0xee, 0xfd, 0x9a, 0xbd, 0x65, 0x76, 0xe9, 0x3e, 0x30, 0x1f, 0x92, 0xbd,
  0xec, 0xc9, 0xe6, 0x3e, 0x94, 0xb1, 0xf2, 0xbd, 0x2c, 0x49, 0x13, 0x3e,
  0xd2, 0x1a, 0x83, 0x3e, 0xb7, 0xc9, 0xd1, 0x3e, 0xa8, 0xff, 0x80, 0xbd,
  0xdf, 0x1a, 0x3f, 0xbe, 0x5f, 0xce, 0xcd, 0xbd, 0x5f, 0x52, 0x63, 0xbd,
  0x8b, 0x54, 0x34, 0xbe, 0x24, 0x1a, 0xa5, 0x3d, 0x14, 0x9e, 0x20, 0xbd,
  0x84, 0x3e, 0xc9, 0x3d, 0x71, 0x7d, 0x2b, 0x3d, 0x30, 0x60, 0x20, 0xbe,
  0x7c, 0xc4, 0x50, 0xbd, 0x39, 0x48, 0x7c, 0x3c, 0x1a, 0x7a, 0x2b, 0xbe,
  0x64, 0xfd, 0xcc, 0xbc, 0xc8, 0xd1, 0xe8, 0xbd, 0xa6, 0x81, 0x74, 0x3d,
  0xf9, 0x9d, 0x1b, 0xbd, 0x4d, 0xca, 0xd5, 0xbd, 0x68, 0xe0, 0x18, 0x3d,
  0x28, 0x82, 0x44, 0xbc, 0xf7, 0x88, 0x39, 0xbe, 0x11, 0xca, 0x1a, 0x3e,
  0x87, 0x16, 0x85, 0xbc, 0x43, 0x45, 0x20, 0x3d, 0x9d, 0xd3, 0xe5, 0x3e,
  0x8f, 0x44, 0xde, 0xbd, 0x93, 0xed, 0xf4, 0xbc, 0xaf, 0xdd, 0xef, 0x3d,
  0x6b, 0xb1, 0xfd, 0xbd, 0x19, 0xad, 0x47, 0x3e, 0x47, 0x63, 0x00, 0x3e,
  0x83, 0x16, 0x0b, 0x3d, 0x16, 0x7c, 0x59, 0xbf, 0x54, 0x5d, 0x3f, 0xbe,
  0x83, 0xac, 0x2b, 0x3f, 0x13, 0x6b, 0xb7, 0xbd, 0xd6, 0x9a, 0x12, 0xbe,
  0x64, 0x01, 0x74, 0x3d, 0x68, 0x6f, 0x3a, 0x3e, 0x1c, 0x0a, 0x01, 0xbf,
  0x4e, 0xc6, 0xe8, 0xbd, 0xae, 0x87, 0x84, 0xbe, 0x9d, 0xba, 0x2a, 0xbf,
  0xe9, 0x72, 0x97, 0xbd, 0xe7, 0x08, 0xcc, 0xbd, 0x68, 0x56, 0x71, 0xbc,
  0x23, 0xd5, 0x6f, 0x3e, 0xcc, 0x46, 0xc8, 0xbd, 0x10, 0x0b, 0x88, 0x3b,
  0x2a, 0x71, 0xcb, 0xbd, 0xef, 0x48, 0x2c, 0xbc, 0xd7, 0x3e, 0x6b, 0xbd,
  0xef, 0x43, 0x7a, 0xbc, 0xf0, 0x1a, 0xa2, 0xbe, 0x38, 0x25, 0x81, 0xbe,
  0xe4, 0x10, 0x98, 0xbb, 0x59, 0xc4, 0x57, 0x3e, 0xbb, 0x61, 0xe7, 0xbd,
  0xab, 0x39, 0x37, 0x3e, 0x8a, 0x44, 0x44, 0xbd, 0x4d, 0xd5, 0xdb, 0xbd,
  0x1c, 0x66, 0xe0, 0xbe, 0xe9, 0xca, 0x8b, 0xbe, 0x7f, 0xf0, 0x61, 0x3d,
  0x08, 0x9d, 0x2e, 0xbe, 0x36, 0x55, 0x7a, 0xbe, 0x58, 0x97, 0x3e, 0xbd,
  0xef, 0x79, 0x93, 0xbc, 0xcb, 0x57, 0x06, 0xbe, 0xea, 0x04, 0x53, 0xbe,
  0x9a, 0xd2, 0x2d, 0xbe, 0x61, 0x89, 0x96, 0x3d, 0x2d, 0x93, 0x2f, 0xbe,
  0xa9, 0x85, 0x63, 0xbe, 0x95, 0xb1, 0xe7, 0xbd, 0x5e, 0xbb, 0xaa, 0xbd,
  0x3d, 0xe2, 0xb5, 0xbd, 0xcc, 0x89, 0x2b, 0x3f, 0xf8, 0x15, 0x5d, 0x3b,
  0x66, 0x67, 0xd8, 0xbd, 0x93, 0xab, 0xf3, 0xbd, 0x37, 0xe8, 0x0c, 0xbe,
  0x37, 0x66, 0x92, 0xbd, 0x37, 0x3e, 0xe1, 0xbd, 0x0e, 0x76, 0x63, 0x3e,
  0x75, 0x74, 0x4e, 0x3e, 0x80, 0xb7, 0x75, 0x3e, 0xef, 0x37, 0x58, 0xbe,
  0xf5, 0xdb, 0x97, 0x3e, 0x55, 0x96, 0x98, 0x3e, 0xcb, 0xf4, 0x87, 0x3b,
  0x7f, 0x7e, 0x1e, 0xbf, 0xaf, 0xa6, 0xb0, 0xbc, 0x64, 0xd7, 0xd5, 0xbe,
  0xba, 0x6d, 0x91, 0xbe, 0x8f, 0x5b, 0x21, 0xbe, 0x55, 0x6f, 0x96, 0xbd,
  0xca, 0x74, 0x2a, 0xbe, 0x10, 0xe0, 0x6b, 0xbe, 0x01, 0xab, 0x10, 0xbf,
  0xda, 0x01, 0xa1, 0xbc, 0x68, 0x90, 0x11, 0x3d, 0x43, 0x90, 0x01, 0xbe,
  0x60, 0x69, 0xe6, 0xbe, 0x2f, 0xb8, 0x5c, 0x3c, 0x6f, 0x92, 0x61, 0xbd,
  0x1f, 0x33, 0xef, 0xbd, 0xb4, 0xa6, 0x48, 0xbe, 0x8b, 0x92, 0x96, 0x3d,
  0xdf, 0x43, 0x1f, 0x3f, 0xa7, 0xcb, 0x82, 0xbe, 0x68, 0x98, 0x3b, 0xbe,
  0x8b, 0xc5, 0xe0, 0x3d, 0xc6, 0xf3, 0xf4, 0x3d, 0x51, 0xdd, 0x60, 0x3e,
  0xb8, 0x16, 0xea, 0xbd, 0xfc, 0x55, 0xd7, 0xbd, 0x85, 0xa7, 0xe4, 0x3e,
  0x91, 0xa4, 0x1e, 0xbe, 0x3c, 0x59, 0x1a, 0xbe, 0x7d, 0xdd, 0x97, 0xbd,
  0x67, 0x4a, 0x3b, 0xbc, 0x94, 0xea, 0x55, 0x3e, 0x8f, 0x59, 0xbf, 0xbd,
  0x1a, 0x58, 0xea, 0xbe, 0x80, 0x96, 0x70, 0x3e, 0x61, 0xb1, 0x32, 0xbe,
  0x64, 0xee, 0x35, 0xbe, 0x00, 0x79, 0xe5, 0xbd, 0x20, 0x77, 0x92, 0xbc,
  0x4b, 0x81, 0xc6, 0x3d, 0xcc, 0x9c, 0x48, 0x3f, 0x52, 0xdb, 0xd3, 0xbe,
  0xfc, 0xed, 0x1d, 0x3d, 0x2c, 0xae, 0x54, 0xbd, 0x61, 0x7d, 0x74, 0xbd,
  0x6d, 0xa3, 0xe7, 0xbd, 0xa7, 0xd4, 0x88, 0xb9, 0x80, 0xe4, 0x14, 0x3e,
  0x38, 0x82, 0x13, 0xbe, 0x68, 0x46, 0xd1, 0xbe, 0x6b, 0xc6, 0x65, 0x3e,
  0x42, 0x67, 0x9d, 0xbd, 0xf2, 0x19, 0xf5, 0xbc, 0x81, 0x28, 0x60, 0x3e,
  0x98, 0xfa, 0x63, 0xbd, 0x0e, 0xda, 0xd4, 0x3d, 0x2c, 0x2c, 0x1b, 0xbe,
  0xa4, 0xeb, 0xf1, 0xbe, 0xbc, 0x65, 0x93, 0x3e, 0x27, 0x6b, 0x87, 0x3d,
  0xd1, 0x4d, 0x66, 0x3e, 0xaf, 0x1d, 0x93, 0x3d, 0x32, 0x1b, 0xa1, 0xbd,
  0x0a, 0xa4, 0xa0, 0x3d, 0x22, 0x8c, 0x8a, 0xbe, 0xb8, 0xa3, 0x9c, 0x3d,
  0x45, 0x7b, 0xe4, 0xbe, 0x06, 0x95, 0xa4, 0xbe, 0x2a, 0xd4, 0x1d, 0xbe,
  0x7b, 0xf9, 0x0b, 0xbe, 0xe5, 0x93, 0x13, 0xbe, 0x18, 0x7b, 0x24, 0xbe,
  0x44, 0x51, 0x81, 0xbe, 0x10, 0x54, 0x41, 0xbe, 0xc6, 0x45, 0x10, 0xbf,
  0x22, 0x8e, 0x5d, 0xbe, 0x73, 0x6b, 0x88, 0xbe, 0xef, 0x89, 0xbf, 0xbd,
  0xc5, 0xe3, 0xca, 0xbe, 0xa1, 0xbb, 0x03, 0xbe, 0x10, 0x0a, 0x66, 0xbe,
  0x6b, 0xc5, 0x42, 0xbe, 0x4c, 0xea, 0x63, 0x3e, 0x31, 0xe4, 0x63, 0x3d,
  0x08, 0x11, 0x5c, 0xbe, 0x18, 0xd6, 0x26, 0x3e, 0x18, 0x4a, 0x35, 0x3e,
  0x61, 0xed, 0xb0, 0x3d, 0xaf, 0x82, 0x09, 0xbe, 0xaa, 0xb9, 0x8e, 0xbd,
  0x8e, 0x7e, 0xe3, 0x3d, 0xe6, 0x3d, 0xfa, 0x3d, 0x50, 0xa4, 0x18, 0xbe,
  0x59, 0x7d, 0x04, 0x3e, 0x8a, 0x99, 0x8f, 0x3d, 0xc8, 0x79, 0x46, 0x3e,
  0xae, 0x5b, 0x33, 0x3e, 0x86, 0x21, 0x84, 0xbd, 0xa6, 0xa5, 0x1c, 0xbc,
  0xcc, 0x4e, 0x2f, 0x3f, 0xe6, 0xee, 0x55, 0xbe, 0x33, 0x05, 0x26, 0xbe,
  0xbf, 0xb8, 0x2e, 0x3a, 0x6b, 0xea, 0x0c, 0xbc, 0x84, 0xef, 0x3e, 0xbd,
  0xff, 0x81, 0xdd, 0xbd, 0x41, 0xb0, 0x0e, 0x3e, 0x8c, 0x1a, 0xc7, 0xbd,
  0x62, 0x43, 0xad, 0xbe, 0xfb, 0x65, 0x1a, 0xbd, 0xb2, 0x9b, 0x3c, 0x3d,
  0x49, 0x61, 0x89, 0xbe, 0x90, 0xed, 0x29, 0xbd, 0x6a, 0x84, 0xb0, 0xbd,
  0x08, 0xa6, 0xe2, 0xbc, 0x2a, 0x02, 0xde, 0xbd, 0x01, 0xef, 0x86, 0xbe,
  0x96, 0x75, 0x7c, 0xbd, 0x97, 0xfe, 0xaa, 0xbd, 0x79, 0x1c, 0xcd, 0x3c,
  0x72, 0x1e, 0x9d, 0xbd, 0x26, 0xb2, 0x2c, 0xbe, 0xa8, 0xec, 0x48, 0xbe,
  0xd7, 0xac, 0x6c, 0xbe, 0x64, 0x67, 0x92, 0xbe, 0xd8, 0x30, 0x89, 0x3c,
  0xbe, 0xf0, 0x86, 0xbd, 0x48, 0xdd, 0x9f, 0x3c, 0x0a, 0x0a, 0xba, 0xbd,
  0x58, 0xce, 0x1a, 0xbe, 0xd0, 0x85, 0xec, 0xbe, 0x5e, 0xe8, 0x72, 0xbe,
  0x62, 0x1f, 0x10, 0xbe, 0x5e, 0x96, 0x03, 0xbf, 0x8a, 0xc8, 0x8a, 0xbe,
  0xa2, 0x8c, 0x12, 0xbf, 0x21, 0x7b, 0xeb, 0xbd, 0x37, 0x68, 0x04, 0xbe,
  0x8c, 0x66, 0x81, 0xbd, 0x90, 0xaa, 0xb7, 0xbe, 0xff, 0x15, 0x4d, 0xbe,
  0x7a, 0xb4, 0xed, 0xbe, 0x98, 0x74, 0xbb, 0xbe, 0x75, 0x59, 0xfc, 0x3e,
  0xce, 0x55, 0x0d, 0x3d, 0xd9, 0xac, 0x23, 0xbd, 0x33, 0xaa, 0x03, 0x3e,
  0x80, 0xc7, 0x3f, 0xbe, 0x76, 0xc8, 0x54, 0x3e, 0x7b, 0x51, 0xce, 0xbe,
  0xe1, 0xd5, 0x9c, 0xba, 0xf2, 0x19, 0x87, 0x3e, 0x1f, 0xca, 0xa5, 0x3e,
  0x92, 0x95, 0x05, 0xbd, 0x18, 0x5d, 0x23, 0x3c, 0x1c, 0x35, 0xb8, 0x3e,
  0x66, 0x15, 0x1d, 0x3e, 0x63, 0x36, 0x86, 0xbe, 0x28, 0x8f, 0x96, 0x3d,
  0x60, 0x14, 0xb3, 0x3e, 0x26, 0xde, 0xff, 0xff, 0x10, 0x00, 0x00, 0x00,
  0x0a, 0x00, 0x00, 0x00, 0x1c, 0x00, 0x00, 0x00, 0x38, 0x00, 0x00, 0x00,
  0x04, 0x00, 0x00, 0x00, 0x10, 0x00, 0x00, 0x00, 0x04, 0x00, 0x00, 0x00,
  0x01, 0x00, 0x00, 0x00, 0x08, 0x00, 0x00, 0x00, 0x1a, 0x00, 0x00, 0x00,
  0x73, 0x65, 0x71, 0x75, 0x65, 0x6e, 0x74, 0x69, 0x61, 0x6c, 0x2f, 0x63,
  0x6f, 0x6e, 0x76, 0x32, 0x64, 0x5f, 0x31, 0x2f, 0x43, 0x6f, 0x6e, 0x76,
  0x32, 0x44, 0x00, 0x00, 0x9c, 0xdd, 0xff, 0xff, 0xa6, 0xde, 0xff, 0xff,
  0x04, 0x00, 0x00, 0x00, 0x80, 0x01, 0x00, 0x00, 0x5a, 0x02, 0x51, 0x3e,
  0x4d, 0x97, 0xc4, 0xbc, 0xf1, 0x0a, 0x1e, 0xbe, 0x1b, 0x3f, 0x80, 0x3c,
  0xe5, 0x3d, 0xc5, 0xbe, 0xe1, 0xa8, 0xb4, 0x3d, 0x76, 0x68, 0x32, 0xbe,
  0xd4, 0x7a, 0xbd, 0x3e, 0x9c, 0x9b, 0x96, 0xbe, 0xb5, 0x71, 0xae, 0x3e,
  0xf7, 0x9f, 0x48, 0x3e, 0xe5, 0x86, 0xc1, 0x3e, 0x3d, 0x36, 0x33, 0xbd,
  0x1a, 0x64, 0x5a, 0x3d, 0xcf, 0xd8, 0x0c, 0x3e, 0xbc, 0x0a, 0x5b, 0xbd,
  0xa2, 0x5b, 0xac, 0x3d, 0xad, 0xc2, 0x54, 0x3d, 0x16, 0x42, 0xb5, 0xbd,
  0x4f, 0xf0, 0xe0, 0x3d, 0x13, 0x2e, 0x17, 0x3c, 0x06, 0xf3, 0x1f, 0x3a,
  0x21, 0xac, 0xdc, 0x3d, 0xef, 0xdf, 0x9c, 0x3b, 0x5e, 0x91, 0xc7, 0x3d,
  0x14, 0x65, 0xa3, 0x3d, 0x63, 0x1e, 0xbb, 0xbd, 0xc1, 0x08, 0x09, 0x3f,
  0x95, 0x83, 0x3f, 0x3e, 0x2d, 0xe2, 0xa1, 0xbe, 0x07, 0x19, 0x3b, 0xbe,
  0x5f, 0x9a, 0x98, 0xbe, 0x9a, 0x26, 0xab, 0x3d, 0x35, 0xc3, 0xad, 0xbe,
  0x73, 0xb7, 0x98, 0x3c, 0x97, 0x31, 0x98, 0x3e, 0x76, 0x1d, 0x99, 0x3e,
  0x48, 0xb7, 0x6d, 0x3e, 0x85, 0xea, 0x37, 0x3e, 0xf0, 0x49, 0x97, 0x3d,
  0xf5, 0x1d, 0x21, 0x3e, 0x7f, 0x81, 0x16, 0x3d, 0xaa, 0x35, 0x26, 0xbd,
  0x39, 0xc8, 0x56, 0x3d, 0xad, 0x54, 0x08, 0x3c, 0x94, 0x32, 0x8b, 0xbe,
  0x36, 0x5b, 0x92, 0xbe, 0x9a, 0x37, 0x40, 0xbe, 0x2b, 0xb1, 0xa1, 0xbe,
  0xd8, 0x4b, 0x2e, 0xbe, 0x2e, 0x26, 0xa6, 0xbc, 0xa0, 0x2b, 0x16, 0xbc,
  0xa9, 0x00, 0x02, 0xbe, 0xea, 0x9e, 0x6a, 0x3e, 0xe9, 0x84, 0xc4, 0x3e,
  0x50, 0x25, 0x91, 0xbd, 0x53, 0xa1, 0xae, 0xbd, 0x7b, 0x99, 0x8f, 0x3e,
  0x39, 0xca, 0x76, 0x3e, 0x7c, 0xd4, 0xf2, 0xbd, 0x18, 0x13, 0xc2, 0xbd,
  0x82, 0xfe, 0x31, 0x3d, 0x32, 0xa1, 0xb7, 0x3d, 0x30, 0xa6, 0x18, 0x3d,
  0x72, 0xc6, 0xff, 0x3d, 0x99, 0x82, 0x8d, 0xbe, 0x2a, 0x51, 0x67, 0x3d,
  0x4e, 0xc9, 0xe8, 0xbd, 0x49, 0xa5, 0x44, 0xbe, 0xec, 0xde, 0x97, 0xbd,
  0x2c, 0x2b, 0x72, 0xbe, 0x9d, 0xed, 0x2f, 0x3e, 0x51, 0x30, 0x59, 0x3e,
  0x53, 0xa8, 0xa9, 0xbe, 0x1b, 0xe8, 0x22, 0x3e, 0x13, 0x48, 0x72, 0xba,
  0x3c, 0xae, 0x13, 0xbe, 0x3b, 0xc2, 0x86, 0x3e, 0x70, 0x02, 0x6a, 0xbe,
  0x79, 0xb8, 0x82, 0x3e, 0x64, 0x3d, 0x50, 0xbe, 0x84, 0x0b, 0xc9, 0xbc,
  0xca, 0xbf, 0xce, 0x3d, 0x48, 0xdb, 0x0f, 0x3d, 0xeb, 0xc9, 0x44, 0xbd,
  0x4b, 0xcc, 0x14, 0xbe, 0xdc, 0x24, 0x40, 0xbd, 0x3d, 0x74, 0x87, 0xbe,
  0x82, 0xb4, 0xf8, 0xbe, 0x09, 0x30, 0x73, 0xbe, 0xa7, 0x41, 0x34, 0x3e,
  0x80, 0x13, 0xaa, 0x3d, 0x55, 0x6b, 0x1e, 0x3c, 0xb2, 0x0c, 0x17, 0x3e,
  0x6e, 0x99, 0x03, 0x3f, 0xe4, 0x47, 0x84, 0x3e, 0xfe, 0xdf, 0xff, 0xff,
  0x10, 0x00, 0x00, 0x00, 0x09, 0x00, 0x00, 0x00, 0x1c, 0x00, 0x00, 0x00,
  0x38, 0x00, 0x00, 0x00, 0x04, 0x00, 0x00, 0x00, 0x08, 0x00, 0x00, 0x00,
  0x04, 0x00, 0x00, 0x00, 0x03, 0x00, 0x00, 0x00, 0x01, 0x00, 0x00, 0x00,
  0x18, 0x00, 0x00, 0x00, 0x73, 0x65, 0x71, 0x75, 0x65, 0x6e, 0x74, 0x69,
  0x61, 0x6c, 0x2f, 0x63, 0x6f, 0x6e, 0x76, 0x32, 0x64, 0x2f, 0x43, 0x6f,
  0x6e, 0x76, 0x32, 0x44, 0x00, 0x00, 0x00, 0x00, 0x74, 0xdf, 0xff, 0xff,
  0x7e, 0xe0, 0xff, 0xff, 0x04, 0x00, 0x00, 0x00, 0xc0, 0x00, 0x00, 0x00,
  0xbc, 0x9d, 0x8c, 0xbe, 0xe7, 0x30, 0xc0, 0xbd, 0x13, 0x32, 0xad, 0x3d,
  0xba, 0xdb, 0xd2, 0xbe, 0xe7, 0xa5, 0x56, 0x3d, 0x7b, 0x86, 0x49, 0xbe,
  0x9d, 0x87, 0xbd, 0x3c, 0x5d, 0x5f, 0xb7, 0x3e, 0xcd, 0x37, 0x72, 0xbc,
  0x27, 0x79, 0x12, 0x3d, 0x1b, 0xb4, 0xed, 0x3e, 0xc1, 0x4a, 0xaf, 0xbd,
  0x48, 0xe7, 0x28, 0x3e, 0xde, 0x46, 0x20, 0xbe, 0x95, 0x2d, 0x94, 0x3e,
  0x52, 0xdb, 0x35, 0xbd, 0x44, 0xba, 0x5e, 0xbe, 0x61, 0x78, 0x00, 0xbe,
  0x9f, 0x90, 0x85, 0xbc, 0xb1, 0xcf, 0xb2, 0xbe, 0x41, 0x5c, 0x05, 0x3e,
  0x9c, 0xac, 0x26, 0xbe, 0xea, 0x00, 0x73, 0xbe, 0xb6, 0x5f, 0x5f, 0xbe,
  0x85, 0xda, 0x3d, 0xbd, 0x00, 0x69, 0x01, 0x3e, 0xa1, 0xe3, 0x73, 0xbe,
  0xef, 0xff, 0x81, 0xbe, 0x0e, 0x14, 0x43, 0x3e, 0xc6, 0xd9, 0xb5, 0xbd,
  0x73, 0x4f, 0x6d, 0x3e, 0x02, 0x36, 0xca, 0x3c, 0x40, 0x27, 0x27, 0xbe,
  0x9e, 0xbf, 0x0a, 0xbe, 0xb6, 0xc1, 0x1a, 0xbe, 0x78, 0xe1, 0x46, 0x3e,
  0x53, 0x0e, 0x1f, 0x3e, 0x30, 0x7b, 0x45, 0xbe, 0x28, 0x1d, 0xa6, 0xbe,
  0x90, 0x7e, 0xaa, 0xbd, 0xf2, 0x1a, 0x37, 0xbd, 0x0b, 0x9c, 0x56, 0x3d,
  0x83, 0x0b, 0xf8, 0xbe, 0x2c, 0xf2, 0x19, 0x3d, 0xec, 0x0f, 0x6f, 0x3e,
  0x40, 0x64, 0x45, 0xbe, 0xd1, 0x14, 0xc1, 0x3e, 0xb0, 0x73, 0x07, 0xbd,
  0x16, 0xe1, 0xff, 0xff, 0x10, 0x00, 0x00, 0x00, 0x08, 0x00, 0x00, 0x00,
  0x14, 0x00, 0x00, 0x00, 0x30, 0x00, 0x00, 0x00, 0x02, 0x00, 0x00, 0x00,
  0x03, 0x00, 0x00, 0x00, 0x10, 0x00, 0x00, 0x00, 0x19, 0x00, 0x00, 0x00,
  0x73, 0x65, 0x71, 0x75, 0x65, 0x6e, 0x74, 0x69, 0x61, 0x6c, 0x2f, 0x64,
  0x65, 0x6e, 0x73, 0x65, 0x5f, 0x31, 0x2f, 0x4d, 0x61, 0x74, 0x4d, 0x75,
  0x6c, 0x00, 0x00, 0x00, 0x84, 0xe0, 0xff, 0xff, 0x8e, 0xe1, 0xff, 0xff,
  0x04, 0x00, 0x00, 0x00, 0x00, 0x1c, 0x00, 0x00, 0xe9, 0xd1, 0xdc, 0xbe,
  0x83, 0x2a, 0x01, 0xbf, 0x03, 0x19, 0x8d, 0xbe, 0x02, 0x70, 0x66, 0xbd,
  0x4c, 0xdc, 0xa5, 0xbe, 0x49, 0xe5, 0xc5, 0x3e, 0xaa, 0x19, 0x15, 0x3e,
  0xfb, 0xe3, 0xfc, 0x3d, 0x68, 0x07, 0x2e, 0x3d, 0x88, 0x09, 0xa4, 0xbe,
  0x6a, 0x52, 0x89, 0xbe, 0x1e, 0xa4, 0xf9, 0xbe, 0x78, 0xdd, 0xa7, 0x3d,
  0x1c, 0xf8, 0xcd, 0x3e, 0xf4, 0x37, 0x29, 0xbe, 0x98, 0x3a, 0x28, 0x3d,
  0xd0, 0x57, 0x7c, 0xbe, 0x58, 0xd7, 0x17, 0x3e, 0x5b, 0x6e, 0xbc, 0xbe,
  0x0e, 0x63, 0xa8, 0x3d, 0x6d, 0xf7, 0x01, 0xbf, 0x77, 0x45, 0x86, 0x3e,
  0x70, 0x51, 0xb9, 0x3e, 0xb0, 0xc7, 0x08, 0x3e, 0xa5, 0xf2, 0x45, 0x3d,
  0x03, 0xa0, 0xac, 0x3c, 0x5f, 0x49, 0xf1, 0xbe, 0xcc, 0x85, 0xf2, 0xbd,
  0x1b, 0x53, 0x37, 0x3f, 0x46, 0xbd, 0x4c, 0x3e, 0xe3, 0xcf, 0xd2, 0xbd,
  0x55, 0x85, 0xfd, 0x3e, 0x7c, 0x00, 0x43, 0xbe, 0xe0, 0x98, 0xb7, 0x3e,
  0x10, 0x3c, 0xea, 0xbe, 0x97, 0xe9, 0xe2, 0x3d, 0xb0, 0x7f, 0x03, 0x3e,
  0xf0, 0x61, 0x8d, 0x3e, 0x2e, 0xb3, 0xee, 0x3e, 0x85, 0x14, 0x0b, 0x3d,
  0x69, 0x7c, 0xaf, 0x3d, 0x47, 0xd2, 0x30, 0x3e, 0x50, 0x31, 0xc8, 0xbe,
  0x87, 0xf1, 0xad, 0xbe, 0x7b, 0xb1, 0x13, 0x3f, 0x81, 0x7d, 0xc7, 0x3e,
  0x8f, 0x1b, 0x27, 0x3d, 0x72, 0x31, 0x1b, 0x3e, 0xac, 0x44, 0xd7, 0x3d,
  0xa8, 0xe8, 0x2e, 0x3e, 0x1c, 0xa4, 0xd6, 0xbe, 0xcf, 0x11, 0xd5, 0x3d,
  0x13, 0x92, 0x3d, 0xbd, 0x4f, 0xfa, 0xb5, 0x3d, 0x66, 0x92, 0xa4, 0x3e,
  0x16, 0x0a, 0x89, 0xbc, 0x53, 0xf3, 0x29, 0x3d, 0xe5, 0x91, 0xca, 0x3e,
  0x5b, 0x04, 0xa0, 0xbe, 0xe8, 0x4b, 0x96, 0xbd, 0xbf, 0xdf, 0x29, 0x3f,
  0x3c, 0xb4, 0x82, 0x3e, 0xd5, 0xca, 0x4f, 0x3e, 0x60, 0x80, 0x16, 0x3d,
  0x58, 0xa4, 0x8e, 0x3d, 0xfe, 0xeb, 0x50, 0x3c, 0x61, 0xfe, 0xe0, 0xbe,
  0x9f, 0xc6, 0xca, 0x3d, 0x17, 0xe3, 0x8e, 0xbe, 0xc9, 0x9c, 0x61, 0xbc,
  0xcf, 0x2e, 0x98, 0xbd, 0x51, 0x16, 0xe0, 0x3d, 0xd7, 0x86, 0x95, 0x3d,
  0x95, 0x00, 0x21, 0x3e, 0xfa, 0x5c, 0x00, 0xbf, 0x4c, 0x83, 0xf9, 0xbd,
  0x01, 0x25, 0xe2, 0x3e, 0xa7, 0x64, 0x26, 0x3d, 0x8c, 0xc0, 0xb2, 0xbd,
  0xf0, 0xfa, 0x92, 0xbe, 0xed, 0xc9, 0x87, 0xbe, 0x13, 0x8e, 0x9a, 0x3d,
  0xfe, 0x8d, 0x19, 0xbf, 0x4e, 0xdf, 0x9d, 0x3c, 0xe7, 0x37, 0x83, 0xbe,
  0x98, 0x2b, 0xd4, 0x3e, 0x14, 0x81, 0xef, 0x3e, 0xab, 0xe3, 0xa2, 0x3d,
  0x9b, 0x40, 0x4c, 0xbc, 0x38, 0x80, 0x7a, 0x3d, 0x10, 0xbb, 0x01, 0xbf,
  0x51, 0x5c, 0x12, 0xbf, 0x97, 0x69, 0xc2, 0x3e, 0x69, 0x23, 0x8e, 0xbd,
  0x77, 0x4a, 0x8b, 0x3d, 0xa0, 0x46, 0xea, 0xbe, 0x86, 0xc2, 0x48, 0xbe,
  0x4d, 0x66, 0x61, 0x3c, 0xc1, 0xfa, 0xdd, 0x3c, 0xda, 0xea, 0xc6, 0x3c,
  0x16, 0x43, 0x39, 0xbe, 0x85, 0x13, 0xd6, 0x3d, 0x07, 0x98, 0x28, 0xbe,
  0x39, 0x5a, 0x84, 0x3c, 0x39, 0x4b, 0x02, 0x3c, 0x4f, 0xac, 0xc3, 0xbd,
  0x7d, 0xde, 0x16, 0xbe, 0x4e, 0x1d, 0xba, 0xbc, 0xc4, 0x75, 0x6e, 0xbd,
  0x7a, 0x98, 0xd4, 0xbd, 0xab, 0xf5, 0x9d, 0x3d, 0xf9, 0x0d, 0x9c, 0xbe,
  0xf1, 0x81, 0x30, 0xbe, 0xce, 0xcc, 0xb5, 0x3d, 0xdb, 0x80, 0x02, 0x3e,
  0xc9, 0x7a, 0x8f, 0x3c, 0xaa, 0xb3, 0x8d, 0x3e, 0x91, 0x38, 0xc7, 0x3d,
  0x1d, 0x69, 0x35, 0xbd, 0xf4, 0x51, 0x3c, 0x3e, 0x49, 0xe4, 0xc7, 0xbe,
  0xc2, 0x75, 0xc4, 0xbe, 0xb2, 0x21, 0xde, 0xbd, 0xf8, 0x89, 0xc5, 0x3d,
  0x37, 0x33, 0x8d, 0xbe, 0x08, 0xd7, 0xd9, 0x3c, 0x1e, 0x73, 0xaf, 0xbe,
  0x35, 0xc3, 0x56, 0xbe, 0x10, 0xca, 0xa6, 0x3d, 0xb5, 0x13, 0x80, 0xba,
  0x36, 0x7e, 0xe3, 0xbc, 0x43, 0xf9, 0x2f, 0xbc, 0x53, 0xa4, 0x48, 0x3e,
  0xce, 0x8e, 0x55, 0x3e, 0x35, 0x9c, 0x58, 0xbe, 0x6e, 0xbf, 0x71, 0xbd,
  0x96, 0xc7, 0x22, 0xbe, 0x0b, 0x4a, 0xe5, 0x3c, 0x10, 0x21, 0x6c, 0x3e,
  0x28, 0x00, 0x08, 0x3e, 0xa4, 0xdb, 0x9d, 0xbe, 0xf1, 0x10, 0x1f, 0x3e,
  0xbc, 0xb3, 0x1d, 0x3d, 0x6c, 0xe9, 0x89, 0x3d, 0xd0, 0x1a, 0xd5, 0x3e,
  0xc9, 0x09, 0x81, 0xbe, 0x8b, 0x28, 0xa2, 0x3e, 0x4a, 0x14, 0x7a, 0xbd,
  0x1d, 0x4a, 0xd8, 0x3e, 0x0f, 0x31, 0xa6, 0x3e, 0x2d, 0xea, 0x13, 0x3d,
  0x74, 0xc0, 0x17, 0xbe, 0x90, 0x7a, 0x02, 0x3e, 0x5e, 0xfd, 0x24, 0x3e,
  0x20, 0x80, 0x92, 0x3e, 0xcd, 0x57, 0xe8, 0x3d, 0xd1, 0xd9, 0xa9, 0xbc,
  0x58, 0x7f, 0x06, 0x3e, 0x45, 0xaf, 0xe7, 0x3d, 0x80, 0x79, 0x63, 0x3d,
  0x39, 0xe1, 0xf4, 0x3e, 0x66, 0x72, 0x57, 0x3e, 0xa5, 0x80, 0x8c, 0x3e,
  0x12, 0x19, 0x8a, 0x3d, 0x41, 0xbb, 0xaa, 0x3e, 0xa0, 0xed, 0xa2, 0x3e,
  0xd3, 0x10, 0xd2, 0xbd, 0xde, 0x2f, 0xe5, 0xbd, 0xf1, 0x18, 0x02, 0x3d,
  0x5f, 0xe9, 0x9d, 0x3d, 0x24, 0xf0, 0xbe, 0x3e, 0x65, 0x8c, 0x04, 0x3e,
  0x8f, 0xcc, 0xa7, 0xbd, 0x22, 0x7c, 0x4f, 0x3d, 0xe1, 0x0b, 0x8e, 0xbe,
  0xc8, 0xa6, 0xbf, 0x3a, 0xe0, 0x0b, 0xcc, 0x3c, 0xc2, 0x7a, 0xfc, 0xbd,
  0x34, 0xb3, 0x35, 0x3e, 0xf5, 0xb6, 0x15, 0xbe, 0xa7, 0x98, 0xab, 0x3e,
  0x5a, 0xef, 0x7a, 0x3e, 0xdd, 0xb2, 0xd1, 0xbd, 0xcf, 0xbf, 0x1f, 0xbc,
  0x6d, 0x93, 0xd3, 0xbd, 0x01, 0x65, 0xe4, 0x3c, 0xac, 0x6f, 0x4e, 0x3e,
  0x87, 0x11, 0xd8, 0x3e, 0xaa, 0xcf, 0xbb, 0xbe, 0xe0, 0x31, 0x3e, 0x3e,
  0x51, 0xdb, 0x08, 0x3e, 0xa8, 0xea, 0xc1, 0xbe, 0xdc, 0x97, 0xa2, 0x3d,
  0xf0, 0x4e, 0xd4, 0xbc, 0xb0, 0x47, 0x31, 0x3e, 0xa9, 0x5d, 0x1a, 0xbe,
  0x9f, 0x70, 0x92, 0x3e, 0x43, 0x78, 0x5d, 0x3e, 0x22, 0x17, 0x15, 0x3d,
  0xec, 0xde, 0xe0, 0x3d, 0xa9, 0xa1, 0x9a, 0xbd, 0x77, 0x47, 0x71, 0xbe,
  0x20, 0x40, 0x2e, 0x3e, 0x1e, 0x95, 0x92, 0x3e, 0xa2, 0x37, 0xae, 0xbe,
  0x06, 0xd9, 0x97, 0x3e, 0xe0, 0x52, 0x76, 0xbe, 0x26, 0x56, 0x03, 0xbe,
  0xff, 0xf1, 0xb1, 0x3d, 0x04, 0xe0, 0xd0, 0xbd, 0xdf, 0x91, 0xdc, 0x3d,
  0xe7, 0x9b, 0x95, 0xbd, 0x9f, 0xf8, 0x3b, 0x3e, 0xd8, 0x6f, 0x34, 0x3e,
  0x2a, 0xc8, 0x74, 0x3e, 0x7a, 0x9e, 0x8b, 0x3d, 0xa7, 0x6c, 0x40, 0xbc,
  0x2f, 0x16, 0x8d, 0xbe, 0x32, 0x45, 0xda, 0x3d, 0x68, 0x5f, 0x48, 0x3b,
  0x31, 0x8b, 0xcb, 0xbd, 0x76, 0x1a, 0x28, 0x3e, 0x07, 0xcf, 0x45, 0xbe,
  0x5c, 0xa1, 0x66, 0xbe, 0xc5, 0x60, 0x4e, 0xbe, 0x62, 0x57, 0x10, 0xbe,
  0x85, 0x0d, 0x27, 0x3e, 0x10, 0x92, 0x8d, 0xbd, 0xb4, 0x3d, 0x28, 0x3e,
  0x31, 0x23, 0x72, 0x3e, 0x80, 0xf3, 0x63, 0x3e, 0x65, 0x43, 0xe6, 0xbd,
  0xa0, 0x2e, 0x93, 0xbe, 0x24, 0x43, 0x84, 0xbc, 0x62, 0xd2, 0x7b, 0xbd,
  0x35, 0x47, 0x13, 0x3e, 0xc5, 0xfe, 0x0b, 0xbe, 0x89, 0xc8, 0x7a, 0x3e,
  0xa2, 0xb6, 0x8c, 0x3a, 0x5c, 0x5d, 0xe2, 0xbd, 0x43, 0x46, 0xe0, 0x3d,
  0xf8, 0x71, 0xa0, 0x3d, 0x84, 0x50, 0xe5, 0xbc, 0x81, 0x69, 0xb1, 0xbe,
  0xf0, 0x4d, 0xf6, 0x3c, 0x23, 0x50, 0x28, 0xbe, 0xf5, 0x42, 0xb8, 0x3d,
  0x2c, 0x50, 0x96, 0xbc, 0xf7, 0xf9, 0x0c, 0xbe, 0x27, 0x78, 0x9e, 0xbc,
  0xcf, 0xb8, 0x37, 0x3e, 0x68, 0xef, 0xb2, 0xbc, 0x64, 0x16, 0xf3, 0xbd,
  0x6f, 0x65, 0x3d, 0x3e, 0xd0, 0xd8, 0xf4, 0xbd, 0x1d, 0xf7, 0x41, 0x3e,
  0xc0, 0xb1, 0xbe, 0x3d, 0x9c, 0x5f, 0x4c, 0x3e, 0x28, 0xd8, 0x69, 0x3e,
  0x36, 0x93, 0xaa, 0xbe, 0xb3, 0xe4, 0x67, 0x3e, 0xbe, 0x58, 0x48, 0x3c,
  0x5d, 0x7a, 0xdd, 0x3d, 0x54, 0xa5, 0xc6, 0xbc, 0x7d, 0x74, 0x84, 0xbd,
  0xc2, 0xa8, 0x4f, 0xbd, 0x29, 0xe7, 0xa9, 0x3d, 0xbb, 0xf6, 0x62, 0x3e,
  0xfb, 0x95, 0x46, 0x3d, 0x6f, 0x22, 0x2e, 0x3e, 0x5b, 0x4b, 0xba, 0x3d,
  0x95, 0xfd, 0xd5, 0x3d, 0xd9, 0x5b, 0x32, 0x3e, 0x48, 0x93, 0x15, 0x3d,
  0xae, 0x8c, 0xfb, 0x3e, 0x1e, 0x2f, 0x56, 0xbe, 0x11, 0x30, 0xd4, 0x3d,
  0x69, 0x57, 0xba, 0xbd, 0x87, 0xaa, 0x9e, 0x3a, 0xb8, 0x43, 0x00, 0x3e,
  0x87, 0x0a, 0x18, 0x3e, 0x18, 0x69, 0xcc, 0xbd, 0x43, 0xdb, 0xa1, 0x3e,
  0xcf, 0x09, 0x8e, 0x3e, 0x18, 0xb8, 0xd0, 0x3d, 0x17, 0xca, 0x6d, 0x3e,
  0xa7, 0x19, 0x81, 0x3c, 0x45, 0x1f, 0x68, 0xbe, 0xdd, 0xa5, 0x29, 0xbe,
  0xcb, 0xa2, 0x92, 0x3e, 0x54, 0x4b, 0xe6, 0x3e, 0x29, 0xa2, 0x86, 0xbe,
  0xbe, 0xde, 0xe2, 0x3e, 0x18, 0x3c, 0xaa, 0xbd, 0x92, 0x13, 0x00, 0xbe,
  0xd8, 0x8c, 0xad, 0xbc, 0x83, 0xfe, 0xd3, 0xbe, 0x77, 0xa7, 0x21, 0x3c,
  0x6a, 0xfb, 0xcb, 0x3d, 0xd2, 0x25, 0xc0, 0x3e, 0xfe, 0x52, 0x90, 0xbc,
  0x0f, 0xaf, 0x56, 0xbd, 0xde, 0xea, 0x45, 0xbe, 0x98, 0x65, 0xff, 0x3b,
  0xa6, 0xba, 0x71, 0x3d, 0xf6, 0x89, 0xf0, 0xbd, 0x00, 0x81, 0x19, 0xbe,
  0x33, 0xd4, 0x35, 0xbd, 0xba, 0x31, 0x89, 0x3e, 0xfd, 0xc9, 0x25, 0x3e,
  0x8f, 0xc3, 0x06, 0x3e, 0xf4, 0x3a, 0x4d, 0xbe, 0xc0, 0x98, 0xab, 0xbe,
  0xd9, 0x32, 0x01, 0xbe, 0x10, 0x34, 0x2c, 0x3d, 0xfe, 0x67, 0xd0, 0xbc,
  0x01, 0xcd, 0x13, 0xbe, 0xda, 0x45, 0x3f, 0x3e, 0x91, 0x92, 0xaf, 0x3d,
  0x13, 0x9c, 0xbb, 0x3d, 0x8b, 0x2a, 0xc2, 0xbd, 0xea, 0x9e, 0x4d, 0xbe,
  0x5b, 0x50, 0xac, 0xbd, 0x94, 0x96, 0x64, 0xbe, 0xd4, 0xdb, 0xfd, 0xbd,
  0xdb, 0x8a, 0xb7, 0xbd, 0xc8, 0x18, 0x02, 0xbd, 0x0f, 0x9a, 0x15, 0x3e,
  0x15, 0x30, 0x10, 0xbe, 0xda, 0x72, 0x9d, 0x3d, 0x76, 0x16, 0x8e, 0x3e,
  0xed, 0x16, 0xf1, 0x3d, 0x1b, 0xd4, 0xbd, 0x3d, 0x79, 0x94, 0xaf, 0x3d,
  0x1a, 0x84, 0x3f, 0xbe, 0xfb, 0xb2, 0x9d, 0xbd, 0x15, 0xdd, 0x92, 0x3d,
  0x93, 0x20, 0x81, 0x3d, 0xc2, 0xc5, 0x99, 0xbd, 0x41, 0xb8, 0x68, 0xbe,
  0xa9, 0x84, 0xa7, 0x3d, 0xa7, 0x69, 0x62, 0xbe, 0x24, 0xf7, 0x13, 0x3e,
  0xb2, 0x00, 0xbf, 0x3c, 0x1d, 0x0f, 0x72, 0xbe, 0x3f, 0xeb, 0xc2, 0x3b,
  0x0e, 0x24, 0x53, 0xbd, 0xa9, 0xfa, 0xe2, 0xbd, 0xbe, 0x8b, 0x2f, 0x3d,
  0x89, 0xcd, 0x3b, 0xbe, 0xc6, 0x1a, 0x48, 0xbe, 0x3c, 0x10, 0xa0, 0x3d,
  0x30, 0xd3, 0xde, 0xbd, 0xd1, 0xfb, 0xa9, 0x3c, 0xe2, 0x91, 0xc2, 0x3b,
  0x32, 0x96, 0x2b, 0xbe, 0xbe, 0x2c, 0x2f, 0xbe, 0x90, 0x6f, 0x51, 0xbe,
  0x6a, 0x79, 0xc2, 0xbd, 0x45, 0x88, 0x02, 0xbe, 0x0d, 0xee, 0x49, 0xbe,
  0x6e, 0x33, 0x7f, 0x3d, 0x6f, 0x6b, 0xca, 0x3d, 0xa1, 0xd3, 0x4a, 0x3e,
  0xa2, 0xc0, 0x2d, 0xbe, 0x38, 0x78, 0xbc, 0xbc, 0x7f, 0xfe, 0xe1, 0x3d,
  0xa9, 0x60, 0x32, 0xbd, 0x9e, 0x2c, 0xae, 0x3d, 0xf7, 0x68, 0xe8, 0xbc,
  0xa2, 0xcf, 0xe7, 0x3d, 0xf3, 0x38, 0xa7, 0xbd, 0x95, 0x1e, 0x06, 0xbe,
  0xee, 0x40, 0x6c, 0x3d, 0x70, 0xb4, 0x58, 0x3e, 0x2e, 0x00, 0x99, 0xbe,
  0xa0, 0x82, 0x7d, 0xbd, 0x5d, 0xa0, 0x49, 0x3e, 0x97, 0xf9, 0x20, 0xbe,
  0x80, 0xfb, 0xd2, 0xbb, 0xc0, 0xb9, 0xcb, 0x3b, 0xcd, 0xe3, 0x37, 0x3e,
  0xa1, 0x69, 0x72, 0x3c, 0x9f, 0xf1, 0x0e, 0xbd, 0x11, 0x3f, 0x68, 0xbc,
  0x72, 0x8e, 0xf2, 0x3a, 0x06, 0x1a, 0x77, 0x3c, 0x88, 0x27, 0x21, 0xbe,
  0x3b, 0xbc, 0x1d, 0x3e, 0x96, 0x35, 0xa4, 0xbd, 0x9f, 0x37, 0x52, 0xbd,
  0xb1, 0xe3, 0x0c, 0x3c, 0xd2, 0x09, 0xa8, 0xbe, 0xeb, 0x77, 0xaf, 0x3b,
  0xaa, 0xda, 0xd7, 0x3c, 0xe4, 0x80, 0x56, 0xbe, 0x71, 0xbc, 0x68, 0xbd,
  0x1e, 0xb8, 0xf7, 0x3d, 0x62, 0xef, 0x5b, 0xbe, 0xad, 0xfd, 0x75, 0xbe,
  0xd3, 0x2f, 0xa1, 0xbd, 0xf3, 0xa0, 0x6c, 0x3d, 0x5a, 0x16, 0x35, 0xbe,
  0xc1, 0xc5, 0x9b, 0xbe, 0x5c, 0x5c, 0x34, 0x3e, 0xac, 0x87, 0x3e, 0xbe,
  0x46, 0x3d, 0x03, 0x3e, 0x3c, 0x02, 0x1d, 0xbe, 0x71, 0x10, 0x99, 0xbc,
  0x81, 0xd3, 0x0b, 0x3e, 0x8a, 0xe5, 0xff, 0x3d, 0x4c, 0xec, 0x11, 0x3e,
  0xaf, 0xe5, 0xc7, 0xbd, 0x11, 0x5f, 0x49, 0x3e, 0x9e, 0x13, 0x48, 0xbe,
  0x14, 0x8b, 0xc6, 0xbd, 0xbd, 0x35, 0x8c, 0xbe, 0x19, 0xfe, 0x49, 0xbc,
  0x61, 0xc4, 0x0c, 0xbd, 0xea, 0x9a, 0xc5, 0xbe, 0x9d, 0x6d, 0xdf, 0xbd,
  0xa9, 0x7c, 0x94, 0x3c, 0x5e, 0x47, 0x03, 0xbe, 0xdf, 0x49, 0x36, 0xbe,
  0xb9, 0x75, 0x8c, 0xbe, 0x48, 0x70, 0x15, 0xbe, 0x97, 0x24, 0x67, 0xbe,
  0xba, 0x36, 0x57, 0x3c, 0x76, 0x9e, 0x89, 0x3d, 0x00, 0xb4, 0x67, 0xbc,
  0x28, 0xbc, 0x3b, 0xbe, 0x23, 0x14, 0xe9, 0x3d, 0x02, 0x85, 0xec, 0xbc,
  0x53, 0x5a, 0xa6, 0xbc, 0xb3, 0xec, 0xb3, 0xbd, 0x12, 0xe9, 0x7b, 0xbe,
  0xf8, 0xc9, 0x11, 0xbe, 0xfd, 0x59, 0x59, 0xbd, 0x66, 0x98, 0xad, 0x3d,
  0x0d, 0x14, 0x39, 0xbe, 0xd1, 0xf9, 0x78, 0xbc, 0xe5, 0x3c, 0x84, 0xbe,
  0xc3, 0xb6, 0xe1, 0x3d, 0x7a, 0xfe, 0xa7, 0x3d, 0x49, 0x3b, 0xc8, 0xbc,
  0xfc, 0xf5, 0xf5, 0xbd, 0xc5, 0x0c, 0xae, 0x3d, 0x19, 0xa0, 0x55, 0xbe,
  0xd6, 0x7f, 0x3d, 0xbe, 0xd1, 0xe1, 0x6f, 0xbe, 0x5d, 0xa7, 0x93, 0xbe,
  0x6e, 0xfc, 0xe0, 0xbc, 0xed, 0xcf, 0x85, 0xbe, 0x53, 0x1c, 0x6d, 0x3e,
  0xf4, 0x1c, 0xa7, 0x3e, 0xe1, 0x1b, 0x18, 0x3d, 0x11, 0x18, 0x8e, 0x3d,
  0xe7, 0x25, 0x5e, 0xbe, 0x1f, 0x4e, 0xea, 0xbd, 0xaa, 0xe5, 0x98, 0xbe,
  0xe6, 0xc7, 0x6a, 0x3d, 0xd4, 0x52, 0x6f, 0x3d, 0xdd, 0xcd, 0x0f, 0xbe,
  0xed, 0x6d, 0xdb, 0xbd, 0xac, 0x00, 0x78, 0xbe, 0x2c, 0xfe, 0xd2, 0x3d,
  0xc2, 0xbf, 0x4c, 0xbe, 0xdc, 0x49, 0x01, 0x3d, 0x61, 0x27, 0xa6, 0xbe,
  0x7a, 0xcc, 0x9f, 0x3e, 0xa1, 0xf3, 0xcb, 0x3e, 0x8d, 0xe9, 0x2a, 0x3e,
  0x60, 0x68, 0x63, 0x3d, 0xdd, 0x70, 0xd2, 0x38, 0x4a, 0x34, 0x81, 0xbe,
  0xae, 0x41, 0x8e, 0xbe, 0x19, 0xad, 0x31, 0x3f, 0x1c, 0x45, 0x0d, 0x3f,
  0x87, 0x31, 0x8a, 0xbe, 0x96, 0x4b, 0x8c, 0x3e, 0x08, 0x51, 0x0b, 0xbe,
  0x36, 0xd4, 0x1b, 0x3e, 0x5f, 0x9f, 0x80, 0xbe, 0x0f, 0x4c, 0xe5, 0x3d,
  0x17, 0xce, 0x01, 0xbe, 0x60, 0xa4, 0xed, 0x3d, 0xd7, 0x78, 0xef, 0x3e,
  0x9f, 0xa0, 0x85, 0x3d, 0x79, 0x52, 0x2c, 0x3d, 0x2e, 0x08, 0x57, 0x3e,
  0x82, 0x26, 0xd8, 0xbe, 0x6d, 0x4b, 0x7a, 0xbe, 0x7f, 0x9b, 0xd6, 0x3e,
  0x85, 0xcc, 0xac, 0x3e, 0x2f, 0x63, 0x3f, 0xbd, 0x7e, 0x21, 0x1f, 0x3d,
  0xb3, 0xae, 0x5e, 0x3d, 0xd4, 0xee, 0xa4, 0x3d, 0x2a, 0xc2, 0x40, 0xbe,
  0xe4, 0xff, 0x6e, 0x3c, 0x89, 0x9a, 0x67, 0xbe, 0xfd, 0x62, 0xe2, 0x3d,
  0x50, 0x3d, 0x96, 0x3d, 0xfe, 0x9d, 0x02, 0x3d, 0xfd, 0xb4, 0x10, 0x3d,
  0xa6, 0x9f, 0x9b, 0x3e, 0x82, 0x21, 0x71, 0xbe, 0x5d, 0x58, 0x50, 0xbe,
  0x5d, 0x86, 0x19, 0x3f, 0x51, 0xda, 0x99, 0x3e, 0x9c, 0x98, 0x0c, 0x3e,
  0xe6, 0x1c, 0xfb, 0xbc, 0xdf, 0x96, 0xaa, 0x3c, 0x98, 0x46, 0xc6, 0x3d,
  0x06, 0x71, 0x9b, 0xbe, 0x19, 0xe4, 0x77, 0x3d, 0xed, 0xc8, 0xdd, 0xbe,
  0x21, 0x7e, 0x8a, 0x3d, 0xec, 0x97, 0x3c, 0x3e, 0x27, 0x5f, 0x2f, 0xbd,
  0x3c, 0x9f, 0x45, 0x3d, 0x40, 0xd2, 0xd7, 0x3d, 0xa8, 0x21, 0xa7, 0xbe,
  0xb1, 0x60, 0x8e, 0xbe, 0x3f, 0x93, 0xf2, 0x3e, 0x2d, 0x6a, 0x67, 0x3e,
  0x1b, 0x09, 0x29, 0xbc, 0xb4, 0x64, 0xdd, 0xbd, 0xee, 0x0a, 0x17, 0xbe,
  0x3e, 0x79, 0x12, 0x3c, 0xde, 0x66, 0x62, 0xbe, 0x73, 0x6d, 0xd7, 0x3d,
  0x36, 0xbd, 0x5d, 0xbe, 0x06, 0x70, 0x12, 0x3e, 0x00, 0x77, 0xa9, 0x3e,
  0x7c, 0xa4, 0xa1, 0xbd, 0x87, 0x15, 0x32, 0x3d, 0x2c, 0xbf, 0x03, 0x3e,
  0xce, 0xfb, 0xde, 0xbe, 0xcb, 0xa3, 0xf9, 0xbe, 0x96, 0x2e, 0x8a, 0x3e,
  0x98, 0x8f, 0x89, 0xbe, 0x72, 0x00, 0xff, 0x3d, 0x13, 0x3a, 0x8f, 0xbe,
  0xaf, 0xed, 0x34, 0xbd, 0x76, 0xa7, 0xc3, 0x3c, 0x7e, 0x0e, 0x1e, 0xbc,
  0xb7, 0xa8, 0x5d, 0x3d, 0x19, 0xb4, 0x0a, 0xbe, 0xa2, 0x8e, 0x50, 0x3e,
  0x8e, 0xbf, 0x37, 0xbe, 0x9c, 0xf8, 0x40, 0x3d, 0x17, 0x20, 0x39, 0x3d,
  0xeb, 0xee, 0x1b, 0xbb, 0x94, 0x16, 0x29, 0xbe, 0x06, 0xe6, 0xc6, 0xbd,
  0x8f, 0x10, 0x6d, 0x3d, 0x24, 0x99, 0x28, 0x3b, 0xc8, 0x4c, 0x03, 0x3e,
  0xe8, 0xee, 0x76, 0xbd, 0xdf, 0xcf, 0x4b, 0x3e, 0xbf, 0x38, 0xc2, 0x3d,
  0x1c, 0xfb, 0x50, 0x3d, 0x0b, 0xf8, 0x73, 0x3d, 0xca, 0x94, 0xa8, 0xbd,
  0x2e, 0x30, 0xcf, 0xbe, 0xc5, 0x37, 0xf7, 0x3d, 0x17, 0x39, 0xd3, 0xbe,
  0x51, 0xdb, 0x70, 0x3e, 0x64, 0xf4, 0x93, 0x3e, 0x10, 0x65, 0x1e, 0x3d,
  0x23, 0x26, 0x0d, 0xbe, 0x29, 0x05, 0x37, 0x3e, 0x4c, 0xa1, 0x44, 0x3d,
  0x64, 0x4b, 0xca, 0x3e, 0x39, 0x5a, 0x57, 0x3e, 0xce, 0xd7, 0xcf, 0xbd,
  0x53, 0x16, 0x31, 0x3e, 0xc8, 0xc9, 0xa0, 0x3d, 0x7d, 0x4b, 0x7c, 0x3b,
  0xe1, 0xa7, 0x62, 0xbd, 0x9a, 0xee, 0x5e, 0x3d, 0x09, 0x65, 0x01, 0x3e,
  0xac, 0xa4, 0xac, 0xbd, 0x78, 0x8e, 0xd5, 0xbb, 0x70, 0xee, 0xbd, 0xbd,
  0xdc, 0x15, 0xc3, 0xbd, 0x55, 0x4a, 0x4b, 0xbe, 0x41, 0x5d, 0xc6, 0xbe,
  0x6f, 0xd3, 0x3b, 0xbe, 0x71, 0xd0, 0x85, 0x3d, 0xb3, 0x38, 0x70, 0xbe,
  0x16, 0xf8, 0xa9, 0xbe, 0x5c, 0x2d, 0x3e, 0xbe, 0xf2, 0xfa, 0x38, 0xbf,
  0xb3, 0x21, 0xc8, 0xbb, 0x15, 0x4f, 0x95, 0xbd, 0xc9, 0x5f, 0xc0, 0x3d,
  0x6b, 0xa8, 0xb5, 0x3c, 0x30, 0x45, 0xc4, 0x3a, 0xd9, 0x94, 0x2a, 0xbe,
  0x4e, 0xa3, 0x7a, 0xbb, 0x3e, 0x2f, 0x23, 0xbf, 0x21, 0xde, 0xf3, 0xbd,
  0x19, 0x3d, 0xe2, 0xbe, 0x9d, 0x22, 0xa1, 0xbd, 0x5c, 0xd7, 0x65, 0xbd,
  0xc1, 0x39, 0x90, 0xbe, 0x30, 0x39, 0x5a, 0xbf, 0x3e, 0x53, 0xb8, 0xbd,
  0x45, 0xc9, 0x52, 0xbf, 0xc6, 0xc7, 0x69, 0xbb, 0x61, 0xc9, 0x29, 0xbf,
  0xa4, 0xf3, 0x56, 0x3e, 0xc2, 0x23, 0x46, 0xbe, 0x2e, 0x21, 0xba, 0x3d,
  0xed, 0xc0, 0x92, 0xbd, 0xeb, 0x7e, 0x3e, 0xbe, 0xba, 0x51, 0x1e, 0xbf,
  0x93, 0xa8, 0x94, 0xbc, 0x93, 0xbc, 0xc0, 0xbe, 0x12, 0x19, 0x7e, 0xbe,
  0xe1, 0x46, 0x90, 0x3b, 0xf9, 0x8b, 0x88, 0x3e, 0x14, 0x64, 0x01, 0x3e,
  0xe9, 0x13, 0x3d, 0x3e, 0x31, 0x78, 0xcd, 0xbd, 0xdc, 0xfe, 0x09, 0xbc,
  0x07, 0x92, 0xa5, 0xbe, 0xaf, 0x7b, 0x2b, 0xbc, 0x15, 0x0d, 0x7c, 0xbd,
  0xfe, 0x99, 0x9e, 0xbb, 0xb7, 0x9f, 0x0d, 0xbd, 0x22, 0x8b, 0x67, 0x3e,
  0xc4, 0x5f, 0xe6, 0xbd, 0x8f, 0x4f, 0xef, 0xbd, 0xb8, 0x37, 0x10, 0x3e,
  0x2f, 0x8c, 0xbe, 0x3d, 0x82, 0xe3, 0x88, 0x3b, 0x7a, 0x79, 0xd1, 0x3e,
  0xd4, 0xe7, 0x90, 0x3d, 0xf4, 0x7c, 0x87, 0xbd, 0x6a, 0xd2, 0x0f, 0x3e,
  0xb3, 0xe7, 0xf9, 0xbb, 0xf4, 0x7b, 0x27, 0xbe, 0x0c, 0xfe, 0xce, 0x3b,
  0xa2, 0x3e, 0x08, 0xbe, 0xe4, 0x3f, 0x41, 0xbd, 0x89, 0x67, 0x96, 0x3d,
  0x0c, 0xd7, 0x73, 0x3e, 0x36, 0x43, 0x95, 0x3d, 0x16, 0xf2, 0xb6, 0xbd,
  0xf4, 0x83, 0xb3, 0x3d, 0xab, 0x2b, 0xa9, 0xbe, 0xb8, 0x36, 0x6b, 0x3e,
  0xc3, 0x6a, 0x8a, 0x3d, 0x4a, 0x20, 0x87, 0xbe, 0xae, 0xbe, 0xa8, 0x3d,
  0xd6, 0xf8, 0x46, 0x3d, 0xca, 0x22, 0xdb, 0xbd, 0xb9, 0xde, 0x21, 0xbd,
  0xa9, 0xaf, 0xac, 0x3d, 0x56, 0x0a, 0x9a, 0xbd, 0x94, 0x2a, 0x11, 0x3d,
  0x8d, 0xa6, 0x8b, 0xbd, 0xfc, 0x8a, 0xb0, 0xbd, 0xfc, 0xc5, 0x72, 0xbe,
  0xf3, 0x29, 0x62, 0x3d, 0x6e, 0x6d, 0x8b, 0xbe, 0x70, 0x19, 0x34, 0xbe,
  0xa8, 0x6c, 0xd9, 0x3c, 0x12, 0x88, 0x57, 0xbe, 0x57, 0xd9, 0x20, 0x3c,
  0x31, 0xee, 0x2d, 0x3e, 0x15, 0x55, 0x65, 0xbe, 0x6b, 0xbc, 0x91, 0xbe,
  0x99, 0x69, 0x6d, 0xbe, 0x64, 0xf7, 0x99, 0x3d, 0x9b, 0xdb, 0x1e, 0xbe,
  0x17, 0xd5, 0x8e, 0xbd, 0x2f, 0x33, 0x77, 0xbe, 0x1b, 0x25, 0x75, 0xbe,
  0x5e, 0xc2, 0x10, 0x3e, 0x1f, 0x0f, 0xaa, 0xbd, 0xce, 0x71, 0x9f, 0x3c,
  0x6c, 0x9b, 0x23, 0xbd, 0xe6, 0x7d, 0x7f, 0xbc, 0x2c, 0x4d, 0xd4, 0x3d,
  0x3e, 0x09, 0x5f, 0xbe, 0xc9, 0x10, 0xae, 0x3d, 0xec, 0x0b, 0x02, 0x3e,
  0x59, 0x24, 0xaf, 0xbe, 0x80, 0x32, 0xff, 0xbc, 0x41, 0x66, 0xb4, 0xbd,
  0xcd, 0xdc, 0x81, 0x3d, 0x89, 0xe1, 0x4b, 0x3d, 0x33, 0xb8, 0x4d, 0xbe,
  0x61, 0xee, 0x3f, 0xbe, 0x36, 0x83, 0x0a, 0xbe, 0x48, 0xf2, 0x4f, 0xbe,
  0x16, 0x79, 0x99, 0xbd, 0x24, 0x0d, 0x41, 0xbe, 0x93, 0x2e, 0x97, 0xbd,
  0x0f, 0xaa, 0x62, 0xbd, 0xf2, 0x4e, 0x85, 0xbd, 0x7b, 0xc1, 0x06, 0x3e,
  0x1d, 0xac, 0x6a, 0xbd, 0x7e, 0x33, 0x22, 0xbe, 0x2f, 0xfa, 0x4d, 0x3c,
  0xd5, 0x55, 0x1d, 0x3e, 0xb5, 0xc9, 0xc1, 0x3d, 0x69, 0x8e, 0x1d, 0x3d,
  0xd3, 0xf6, 0xba, 0xbd, 0x3c, 0x16, 0xfb, 0x3c, 0x53, 0xd2, 0x59, 0xbe,
  0xfe, 0x68, 0xdf, 0x3d, 0x61, 0xbc, 0xfe, 0xbd, 0xd4, 0x17, 0x1c, 0x3d,
  0x46, 0xc9, 0x68, 0xbe, 0x36, 0xa5, 0x0b, 0xbe, 0x2f, 0x99, 0x02, 0x3d,
  0x97, 0xf6, 0x50, 0x3d, 0xb3, 0xce, 0xda, 0xbd, 0x28, 0xb8, 0xde, 0xbe,
  0x66, 0x05, 0x14, 0xbd, 0x0b, 0x7d, 0xe6, 0xbd, 0x4c, 0xd3, 0xca, 0x3c,
  0xb5, 0xac, 0x70, 0x3d, 0x79, 0x6c, 0xa3, 0xbd, 0xbe, 0xad, 0x3a, 0x3d,
  0xd6, 0x7a, 0xf4, 0xbd, 0xce, 0xad, 0xda, 0x3d, 0x7c, 0x6f, 0x1b, 0xbe,
  0x68, 0xb1, 0x12, 0x3d, 0x23, 0x4f, 0x35, 0xbe, 0x15, 0x57, 0x60, 0xbe,
  0xb0, 0xb9, 0x64, 0xbe, 0x11, 0x5a, 0x71, 0x3d, 0xa5, 0x6f, 0x29, 0x3e,
  0x38, 0x38, 0xc7, 0xbe, 0xae, 0x87, 0xbe, 0xbd, 0xf1, 0xda, 0xcb, 0xbd,
  0xeb, 0x2e, 0x44, 0x3e, 0xb8, 0xe5, 0x31, 0xbe, 0x67, 0xce, 0x9d, 0xbd,
  0xff, 0x6d, 0xec, 0xbc, 0xb9, 0x0e, 0xb5, 0xbd, 0xb3, 0x9a, 0xb4, 0x3d,
  0x10, 0x5b, 0x2d, 0x3c, 0xd6, 0x6d, 0x19, 0xbc, 0x8b, 0x58, 0xaa, 0x3d,
  0xa5, 0x06, 0x77, 0xbc, 0x86, 0x1d, 0x3f, 0xbe, 0xa6, 0xa4, 0x9d, 0x3c,
  0xeb, 0xd3, 0xd3, 0x3d, 0x92, 0x9a, 0xec, 0xbd, 0xf7, 0x40, 0x13, 0xbd,
  0x54, 0x83, 0xd8, 0xbd, 0xf9, 0xc4, 0x54, 0xbe, 0x2c, 0x86, 0x85, 0xbe,
  0x68, 0xaa, 0x61, 0xbe, 0xa2, 0xd1, 0x82, 0xbd, 0x10, 0x00, 0x45, 0x3d,
  0x62, 0x2a, 0x4c, 0xbe, 0xd4, 0x0e, 0x47, 0x3d, 0x0d, 0xda, 0x28, 0xbe,
  0xe1, 0x1b, 0x6e, 0x3c, 0x45, 0x2e, 0xf5, 0xbd, 0x53, 0x28, 0x36, 0xbe,
  0xa0, 0x81, 0xe4, 0xbd, 0xac, 0x3e, 0xd1, 0x3d, 0xae, 0x3d, 0xb0, 0xbe,
  0x68, 0x35, 0x51, 0xbd, 0x65, 0x35, 0x42, 0xbe, 0x2a, 0xa4, 0x9a, 0xbd,
  0x64, 0x41, 0xa9, 0xbd, 0x06, 0x96, 0x5b, 0xbd, 0x83, 0x6f, 0xf0, 0x3d,
  0x29, 0xbf, 0x06, 0xbd, 0x80, 0x0d, 0x8d, 0xbd, 0xe3, 0x2a, 0x0d, 0x3c,
  0x38, 0x13, 0x1d, 0x3e, 0x49, 0x37, 0x57, 0x3d, 0x37, 0x94, 0x25, 0xbe,
  0x77, 0x48, 0x38, 0xbd, 0xc9, 0xfe, 0x0e, 0xbe, 0x0c, 0xe8, 0xac, 0x3d,
  0xbf, 0x47, 0xb3, 0xbd, 0x96, 0x36, 0x5f, 0xbe, 0x15, 0x2d, 0xe4, 0x3d,
  0x47, 0xf1, 0xd7, 0xbd, 0xbc, 0x1a, 0x04, 0xbe, 0x6b, 0x57, 0x86, 0xbe,
  0xf6, 0x38, 0x8b, 0x3d, 0xfb, 0xec, 0x47, 0xbe, 0x1a, 0x1f, 0xa1, 0x3c,
  0x99, 0x48, 0x88, 0x3c, 0x58, 0xc0, 0x3d, 0xbd, 0xa9, 0x52, 0xcc, 0xbd,
  0xfb, 0x15, 0x9f, 0xbd, 0xe0, 0x92, 0xcd, 0xbd, 0x49, 0x4b, 0x88, 0xbd,
  0x01, 0xbb, 0x20, 0xbe, 0xa3, 0x66, 0x00, 0xbe, 0xd1, 0x94, 0xef, 0xbd,
  0x15, 0xd2, 0xb1, 0x3d, 0xf3, 0xde, 0x3e, 0xbd, 0x76, 0x1b, 0x02, 0xbd,
  0xf0, 0x1b, 0x85, 0xbe, 0x99, 0xac, 0x00, 0x3e, 0xdc, 0xc7, 0x84, 0xbd,
  0xd4, 0xb6, 0x34, 0xbe, 0x24, 0x96, 0xd7, 0xbc, 0xc1, 0xeb, 0x61, 0xbe,
  0x4d, 0x97, 0xf6, 0x3d, 0x47, 0x3e, 0xdf, 0xbd, 0x05, 0xc5, 0xfd, 0xbd,
  0x47, 0x60, 0x78, 0xbe, 0x5a, 0xbb, 0x42, 0xbd, 0xf8, 0x10, 0x7c, 0xbe,
  0x2d, 0xac, 0xf0, 0x3d, 0x9b, 0x37, 0xad, 0x3c, 0xc6, 0xce, 0x30, 0x3e,
  0x72, 0xa7, 0xff, 0xbd, 0xbb, 0x80, 0x0d, 0x3e, 0x4e, 0x90, 0xfd, 0x3a,
  0x92, 0x56, 0x70, 0x3d, 0xdb, 0xca, 0x13, 0xbe, 0xab, 0x7a, 0x02, 0x3e,
  0x29, 0x9c, 0x1d, 0x3e, 0x00, 0x99, 0x13, 0x3e, 0x03, 0xba, 0x2a, 0x3d,
  0xa4, 0x0b, 0xb5, 0x3d, 0x62, 0x93, 0x6f, 0xbd, 0xd3, 0x66, 0x3e, 0x3b,
  0x66, 0x9c, 0x42, 0xbd, 0x07, 0x5a, 0xef, 0x3d, 0xd3, 0x7f, 0x20, 0x3d,
  0x79, 0x00, 0xac, 0x3d, 0xff, 0x88, 0xe1, 0xbd, 0x06, 0x77, 0x5f, 0xbe,
  0x1a, 0x48, 0x9a, 0x3d, 0x24, 0x12, 0x20, 0x3e, 0xdf, 0x47, 0x4d, 0xba,
  0x1f, 0x59, 0xb5, 0x3d, 0x02, 0xa7, 0x2f, 0xbe, 0x77, 0xec, 0xb9, 0x3d,
  0xfd, 0xfd, 0x6a, 0x3d, 0x30, 0x4e, 0x9b, 0x3c, 0xa4, 0x2d, 0xdb, 0x3d,
  0x8e, 0x2b, 0xe7, 0xbc, 0x77, 0xb6, 0xab, 0xbe, 0x7b, 0xa0, 0xe2, 0x3b,
  0xda, 0xa6, 0x4a, 0xbe, 0xb2, 0x80, 0x6c, 0xbd, 0xb2, 0xe2, 0x50, 0xbd,
  0x6c, 0x6b, 0xab, 0xbd, 0x82, 0xc7, 0x08, 0x3e, 0xd8, 0xa1, 0x2b, 0xbe,
  0xf9, 0x06, 0x9b, 0xbd, 0x94, 0x4d, 0x0a, 0x3e, 0x03, 0x70, 0xc3, 0xbc,
  0x34, 0x06, 0x62, 0xbe, 0xec, 0x54, 0x3e, 0xbc, 0xe0, 0xba, 0x35, 0xbb,
  0x39, 0x24, 0x4e, 0x3d, 0xe7, 0xd7, 0x15, 0xbe, 0x29, 0x6d, 0x04, 0xbd,
  0x80, 0x7e, 0x51, 0x3d, 0x11, 0xf2, 0xa6, 0xbc, 0x96, 0xa0, 0xeb, 0x3c,
  0x8f, 0x8c, 0x34, 0xbc, 0x81, 0xc6, 0x18, 0xbe, 0x39, 0xa4, 0x33, 0xbd,
  0xc5, 0x93, 0x9a, 0xbc, 0x7a, 0x7a, 0x81, 0xbe, 0xfe, 0x02, 0x12, 0x3e,
  0x5a, 0x70, 0xe7, 0xbb, 0x92, 0x82, 0x1f, 0x3d, 0x4e, 0xba, 0x68, 0xbe,
  0xf6, 0xd4, 0x62, 0xbe, 0x37, 0xec, 0x5e, 0x3c, 0x82, 0x41, 0x50, 0x3b,
  0xb9, 0x37, 0xa4, 0xbe, 0x05, 0x4f, 0x07, 0x3d, 0xbd, 0xdd, 0xda, 0xbd,
  0x7d, 0x9b, 0xa3, 0xbc, 0xfe, 0x00, 0x62, 0xbc, 0x8f, 0xec, 0x1b, 0xbe,
  0x64, 0x16, 0x51, 0xbe, 0x83, 0x48, 0x1a, 0xbc, 0xb5, 0x36, 0x7a, 0xbe,
  0xd6, 0x30, 0x55, 0x3c, 0xef, 0xfa, 0x31, 0xbc, 0xb4, 0xad, 0x87, 0xbe,
  0xea, 0x0f, 0xdb, 0x3d, 0x84, 0x3f, 0x2c, 0xbd, 0xff, 0x58, 0x90, 0x3e,
  0xcc, 0x9d, 0x5e, 0xbb, 0x42, 0x62, 0x7c, 0x39, 0x45, 0x1e, 0x8c, 0x3e,
  0xb5, 0x29, 0x64, 0x3e, 0x1c, 0x9b, 0x89, 0x3d, 0x60, 0x50, 0xfc, 0x3b,
  0x83, 0x31, 0x0a, 0xbf, 0x87, 0x5f, 0xc9, 0xbe, 0xf5, 0xf7, 0xf9, 0xbd,
  0x48, 0xe4, 0x00, 0x3e, 0x8a, 0xc2, 0xdd, 0xbe, 0x78, 0xf8, 0x3a, 0xbd,
  0xc1, 0xb6, 0x0c, 0xbf, 0xe6, 0x52, 0xb5, 0xbe, 0x09, 0x00, 0x53, 0x3e,
  0x63, 0x0a, 0xfd, 0xbd, 0x96, 0xd4, 0x60, 0x3b, 0x73, 0x2c, 0x04, 0x3c,
  0x67, 0xc0, 0x45, 0x3e, 0x04, 0xa9, 0xbd, 0xbc, 0x0a, 0xa7, 0xd9, 0xbe,
  0x64, 0xbf, 0x12, 0xbe, 0xa3, 0x9e, 0xfd, 0xbd, 0xf1, 0xd5, 0x77, 0x3d,
  0xa7, 0x66, 0x3b, 0x3d, 0x1b, 0x26, 0xd0, 0x3d, 0xb6, 0x6d, 0xd3, 0xbd,
  0x0f, 0x2f, 0x84, 0x3e, 0x1d, 0x70, 0x29, 0xbe, 0xee, 0xb9, 0x68, 0x3e,
  0x40, 0x4e, 0x0c, 0x3f, 0xf1, 0x5e, 0x6f, 0xbe, 0x39, 0xec, 0xbb, 0x3e,
  0x8f, 0xd9, 0x1a, 0xbd, 0xb7, 0x6d, 0x9c, 0x3e, 0xc8, 0x57, 0xd7, 0xbc,
  0x1e, 0x6b, 0x86, 0xbd, 0x06, 0x20, 0x07, 0xbe, 0x29, 0xad, 0x0c, 0x3e,
  0x5f, 0x65, 0x3d, 0xbc, 0x98, 0xad, 0xc0, 0x3e, 0x87, 0xbb, 0xc2, 0x3d,
  0xbe, 0xd9, 0xb5, 0xbd, 0x04, 0x32, 0xbe, 0x3d, 0x26, 0xbd, 0xae, 0xbd,
  0xe4, 0xa6, 0x5a, 0xbd, 0xa0, 0x98, 0x01, 0x3f, 0x26, 0x87, 0x4a, 0x3d,
  0xfb, 0xfe, 0x88, 0x3e, 0xd0, 0xaf, 0x0a, 0x3b, 0xe8, 0xc6, 0xb0, 0x3e,
  0x7d, 0x64, 0x1c, 0x3e, 0x83, 0xe6, 0x19, 0x3c, 0x2f, 0x53, 0x7a, 0xbd,
  0x9d, 0x45, 0xdf, 0x3d, 0x0a, 0x0c, 0x70, 0xbe, 0x26, 0x96, 0xa2, 0x3e,
  0xf4, 0x92, 0xcf, 0x3d, 0x4a, 0x53, 0x59, 0xbe, 0x30, 0xbd, 0xa0, 0xbd,
  0x8b, 0x6e, 0x4a, 0xbe, 0x38, 0xf0, 0x62, 0xbe, 0x0f, 0xf1, 0x22, 0xbd,
  0xcf, 0x41, 0x00, 0x3d, 0x66, 0xfe, 0x1f, 0x3e, 0x17, 0xef, 0xc3, 0x3c,
  0x0f, 0x18, 0xd0, 0x3e, 0xbb, 0x6c, 0x4f, 0xbc, 0xc4, 0x16, 0xb2, 0x3d,
  0x7c, 0x30, 0xaf, 0xba, 0x76, 0x10, 0xce, 0xbd, 0x8a, 0x96, 0x3f, 0xbe,
  0x23, 0xd3, 0x37, 0x3e, 0x57, 0x9a, 0x96, 0x3e, 0x85, 0xa4, 0x07, 0xbf,
  0xbc, 0xc0, 0x18, 0x3f, 0x40, 0x18, 0xd0, 0x3d, 0xaf, 0x96, 0x0f, 0xbf,
  0x5e, 0xcd, 0x2c, 0x3e, 0x2a, 0xfc, 0xf9, 0xbc, 0xa8, 0xc7, 0xca, 0x3d,
  0x9d, 0x8d, 0xae, 0xbd, 0x5e, 0x4d, 0xbd, 0x3e, 0xe4, 0x70, 0x2c, 0x3d,
  0xaa, 0x61, 0x03, 0xbe, 0xdc, 0x11, 0x77, 0x3c, 0xd3, 0x13, 0x00, 0x3b,
  0x6d, 0xe7, 0x1c, 0xbf, 0x15, 0x38, 0xfa, 0x3d, 0x6d, 0x54, 0x2c, 0x3e,
  0x27, 0xd1, 0xae, 0xbe, 0x01, 0xe7, 0x01, 0x3f, 0x8d, 0x69, 0xbd, 0xbe,
  0x61, 0xbe, 0x3a, 0xbe, 0xbc, 0x7a, 0x76, 0x3d, 0xa6, 0x83, 0x6d, 0xbd,
  0x6e, 0x9c, 0x5b, 0x3c, 0x89, 0x33, 0x5f, 0xbd, 0x26, 0x45, 0x5a, 0x3d,
  0x59, 0xe0, 0xe7, 0x3c, 0xba, 0x47, 0x2f, 0x3e, 0xf6, 0x91, 0x6b, 0x3d,
  0x84, 0x40, 0xa1, 0x3d, 0xe0, 0x4f, 0x43, 0xbe, 0x17, 0x59, 0x2d, 0x3e,
  0x43, 0x81, 0x33, 0xbc, 0xd4, 0xd0, 0x30, 0xbe, 0x4e, 0x2c, 0x0c, 0x3e,
  0xa2, 0x4f, 0xbf, 0xbe, 0x3d, 0xa5, 0x78, 0xbe, 0x08, 0xb9, 0x39, 0xbb,
  0x78, 0x56, 0x26, 0xbe, 0xeb, 0x57, 0x70, 0xbe, 0x35, 0x95, 0xe7, 0xbc,
  0x4b, 0x97, 0xc7, 0xbe, 0x07, 0x10, 0x51, 0xbc, 0x4e, 0x48, 0x37, 0xbe,
  0x97, 0xc7, 0x92, 0xbe, 0x4c, 0x33, 0xa2, 0xbd, 0x8d, 0x99, 0x09, 0xbe,
  0xb8, 0x70, 0x4e, 0x3d, 0xfd, 0xc2, 0x5b, 0xbe, 0x8c, 0x0a, 0x02, 0xbe,
  0xf0, 0x3c, 0x99, 0x3d, 0x1e, 0x0d, 0xc3, 0xbd, 0xc9, 0x0c, 0x87, 0xbd,
  0x7e, 0xe2, 0x0f, 0xbe, 0x70, 0xb1, 0x8d, 0xbe, 0xbe, 0xac, 0x08, 0x3e,
  0x44, 0x24, 0x87, 0xbe, 0x9c, 0x58, 0x4c, 0xbe, 0x58, 0x5a, 0x0b, 0x3e,
  0xb8, 0x9e, 0x3f, 0xbe, 0x8f, 0x08, 0x83, 0xbe, 0x9d, 0x53, 0xb2, 0xbd,
  0x79, 0x04, 0x3a, 0x3c, 0x42, 0x14, 0xde, 0xbd, 0xb2, 0xdd, 0x1a, 0xbe,
  0x2e, 0xcd, 0x7a, 0xbd, 0xb2, 0xdc, 0x9f, 0x3d, 0x1a, 0xd4, 0x2b, 0xbd,
  0xfa, 0x97, 0x81, 0xbd, 0x80, 0x5c, 0x7f, 0xbe, 0xd9, 0x21, 0x4a, 0xbe,
  0xca, 0x78, 0x9b, 0x3d, 0x7c, 0x59, 0x84, 0xbe, 0x7a, 0x2a, 0x55, 0xbd,
  0x07, 0x08, 0xe7, 0x3c, 0x49, 0x12, 0x80, 0xbd, 0x74, 0x39, 0xb8, 0xbe,
  0x19, 0xe4, 0x43, 0xbd, 0x77, 0xf2, 0xc9, 0x3d, 0x70, 0xdc, 0x6b, 0xbe,
  0x5d, 0xc7, 0x01, 0xbc, 0x36, 0xce, 0xe4, 0xbe, 0x89, 0x62, 0xe7, 0xbd,
  0x5a, 0xd9, 0x17, 0x3e, 0xb7, 0xe2, 0x44, 0xbd, 0x5c, 0xf3, 0xfb, 0xbe,
  0x19, 0x55, 0x88, 0xbe, 0x86, 0x52, 0x5e, 0xbe, 0x6a, 0xe6, 0x74, 0xbe,
  0xf4, 0xae, 0xf7, 0xbc, 0x7b, 0x73, 0x25, 0xbe, 0xf7, 0x53, 0x46, 0xbe,
  0xf9, 0xf5, 0x8b, 0xbe, 0x58, 0xb4, 0x9d, 0xbd, 0xd2, 0x15, 0xbb, 0x3b,
  0x9d, 0x04, 0xdf, 0xbe, 0x4c, 0x89, 0x44, 0xbe, 0x34, 0x36, 0x57, 0xbe,
  0x11, 0x8d, 0x42, 0xbd, 0xff, 0xc1, 0xfd, 0x3b, 0x12, 0xf8, 0xbe, 0xbb,
  0xea, 0xbb, 0x7f, 0x3d, 0x79, 0x9f, 0xc9, 0xbe, 0x40, 0xff, 0xe9, 0x3d,
  0x34, 0x4d, 0x29, 0xbe, 0x1f, 0x86, 0x6a, 0xbe, 0xe0, 0xbc, 0x21, 0xbe,
  0x16, 0x2b, 0x63, 0x3d, 0x93, 0x8a, 0x29, 0xbe, 0xb2, 0x16, 0xa6, 0xbd,
  0x98, 0xf1, 0x08, 0x3e, 0x16, 0x56, 0xa0, 0x3c, 0x76, 0xc2, 0x65, 0x3d,
  0x5c, 0x4c, 0x34, 0x3e, 0x6d, 0x46, 0xfc, 0xbd, 0x14, 0x77, 0x14, 0xbe,
  0x71, 0x2d, 0xc7, 0x3e, 0x2e, 0x0d, 0x7d, 0x3e, 0xf7, 0x6b, 0xab, 0xbd,
  0xdf, 0xe5, 0x0f, 0x3d, 0x58, 0x2f, 0xf9, 0xbd, 0x8f, 0xae, 0xf5, 0xbb,
  0x84, 0x1e, 0x0b, 0x3e, 0x3f, 0x7d, 0x18, 0xbe, 0x00, 0x6f, 0x67, 0xbe,
  0x98, 0x6b, 0xba, 0x3b, 0x9a, 0x81, 0x45, 0x3e, 0x04, 0x86, 0x68, 0xbc,
  0x1c, 0xbe, 0x0d, 0xbe, 0x75, 0x29, 0xad, 0x3d, 0x92, 0xbe, 0x49, 0xbe,
  0x81, 0x42, 0x77, 0x3e, 0x78, 0xcc, 0x90, 0x3e, 0x7f, 0x0e, 0xd9, 0x3c,
  0x99, 0xc6, 0xf3, 0x3d, 0x53, 0xac, 0xb2, 0x3d, 0xe8, 0xa0, 0xc1, 0xbd,
  0xfa, 0xf9, 0xb6, 0xbb, 0xc4, 0x4c, 0x09, 0x3c, 0x8d, 0x30, 0x34, 0xbd,
  0x07, 0x4c, 0xd0, 0xbd, 0x6e, 0xf8, 0x07, 0xbd, 0x82, 0xf8, 0x81, 0x3e,
  0x35, 0xb2, 0xb3, 0x3d, 0x6a, 0x88, 0x0a, 0xbe, 0xdc, 0x9c, 0xad, 0x3d,
  0xb9, 0xec, 0x57, 0x3b, 0xcb, 0x37, 0x51, 0x3d, 0x39, 0x25, 0x69, 0x3e,
  0x54, 0x1f, 0x5f, 0xbc, 0xaf, 0xd3, 0xa9, 0x3d, 0xca, 0xcb, 0x49, 0xbe,
  0x24, 0x08, 0x8e, 0xbe, 0xba, 0x75, 0x55, 0x3e, 0xb8, 0x80, 0xad, 0x3d,
  0xbb, 0x20, 0x35, 0xbe, 0x44, 0xc2, 0x12, 0xbe, 0x6d, 0x9a, 0xf8, 0xbd,
  0x12, 0xc2, 0xb3, 0x3d, 0x28, 0xc2, 0xf2, 0xbd, 0x5e, 0xb1, 0x59, 0xbc,
  0x0e, 0xcc, 0x3e, 0xbe, 0x0f, 0xe9, 0x3a, 0x3e, 0xa5, 0xaf, 0x51, 0x3d,
  0xa2, 0x1a, 0x2a, 0x3b, 0x58, 0x83, 0x20, 0xbe, 0xd7, 0x57, 0x0b, 0xbe,
  0x03, 0x2a, 0x9f, 0xbd, 0x64, 0xaf, 0x87, 0xbe, 0xe6, 0xfc, 0x05, 0x3e,
  0xc2, 0x25, 0x3d, 0xbe, 0x12, 0x32, 0xf3, 0x3d, 0x37, 0x38, 0x29, 0x3e,
  0x38, 0x56, 0xe4, 0x3c, 0x91, 0x5f, 0x46, 0xbe, 0x3a, 0x8e, 0xf6, 0x3d,
  0xe1, 0x1a, 0x0a, 0xbd, 0x78, 0x56, 0x45, 0xbe, 0x6a, 0x91, 0xaf, 0x3d,
  0xd4, 0xea, 0xde, 0x3d, 0x74, 0xa1, 0x08, 0xbe, 0xbb, 0xf6, 0xe1, 0x3d,
  0x5a, 0x90, 0x97, 0x3d, 0xb0, 0xe9, 0xa5, 0x3d, 0x4a, 0x46, 0x4b, 0xbd,
  0x07, 0x79, 0x16, 0x3d, 0x99, 0xd2, 0xb5, 0xbc, 0xda, 0xc4, 0x86, 0x3d,
  0xe3, 0xab, 0xe4, 0xbd, 0xc6, 0x0b, 0x9a, 0xbe, 0x5e, 0x6e, 0xf7, 0xbd,
  0xa8, 0xb3, 0x33, 0x3e, 0x4b, 0x42, 0x9c, 0xbb, 0xa3, 0x7f, 0x4a, 0xbe,
  0x08, 0x3d, 0x09, 0xbe, 0x55, 0x42, 0x73, 0xbe, 0x8e, 0xbf, 0x28, 0xbe,
  0xee, 0xd2, 0x13, 0x3e, 0xf7, 0x82, 0x7d, 0xbd, 0x51, 0x05, 0x41, 0xbe,
  0x6a, 0x75, 0x6a, 0xbe, 0x9f, 0x77, 0xe7, 0x3d, 0x2c, 0x73, 0x3f, 0x3c,
  0x39, 0x2f, 0x3d, 0xbe, 0xb7, 0x5d, 0xfb, 0x3d, 0x39, 0x3d, 0xee, 0xbc,
  0x36, 0x94, 0xa4, 0xbd, 0xc4, 0x4c, 0x6f, 0xbd, 0xcb, 0xfa, 0x59, 0xbd,
  0xaf, 0xfc, 0x09, 0x3c, 0x2e, 0x19, 0xd7, 0x3d, 0xdd, 0x0f, 0x27, 0xbe,
  0xb4, 0xde, 0x29, 0x3d, 0xc7, 0x61, 0x70, 0xbe, 0xa0, 0xbf, 0x41, 0x3d,
  0x72, 0xe2, 0x91, 0x3d, 0xa3, 0x04, 0xab, 0xbe, 0xbe, 0x6c, 0xfc, 0x3d,
  0x69, 0xf0, 0xbb, 0xbd, 0x38, 0x2b, 0xec, 0x3c, 0x1b, 0x8f, 0x42, 0xbd,
  0xc9, 0x7e, 0x7e, 0xbe, 0x91, 0x68, 0x68, 0xbe, 0xa7, 0x0e, 0x00, 0xbe,
  0xa2, 0x59, 0xe1, 0xbd, 0x22, 0x15, 0x24, 0x3e, 0xc7, 0xdf, 0x21, 0x3e,
  0x64, 0xde, 0x63, 0x3c, 0x3c, 0x6f, 0x21, 0x3e, 0x8c, 0x21, 0xdb, 0xbc,
  0x0b, 0x44, 0x8e, 0xbc, 0x40, 0x80, 0xca, 0xbd, 0x81, 0x6c, 0xc7, 0xbe,
  0x9d, 0x29, 0x18, 0x3d, 0x69, 0xa0, 0xe5, 0xbd, 0x98, 0x48, 0xd5, 0x3d,
  0x00, 0x77, 0xb0, 0xbd, 0x36, 0x36, 0xf2, 0xbd, 0xbc, 0xf6, 0x3a, 0x3c,
  0x19, 0x4b, 0x75, 0xbd, 0xb7, 0x57, 0x05, 0x3e, 0xc2, 0xb2, 0xfd, 0x3c,
  0xc1, 0xe2, 0x3b, 0x3d, 0xcc, 0xdf, 0x72, 0x3d, 0x56, 0x82, 0x71, 0xbd,
  0xf8, 0x18, 0xcc, 0xbd, 0x22, 0x25, 0x71, 0xbd, 0x2f, 0x2b, 0x53, 0x3d,
  0xea, 0x9f, 0x8c, 0xbe, 0x40, 0xa8, 0x90, 0xbd, 0xdf, 0xee, 0x35, 0xbd,
  0x7b, 0xba, 0x9b, 0x3d, 0xc0, 0xb3, 0x2c, 0xbe, 0x21, 0xe5, 0x04, 0xbe,
  0x25, 0xf5, 0xfb, 0xbd, 0x5c, 0x82, 0xa1, 0x3d, 0xa1, 0xbe, 0xb8, 0x3d,
  0x35, 0x54, 0x07, 0x3c, 0x62, 0x37, 0x8c, 0x3c, 0xa9, 0x73, 0xea, 0xbb,
  0x4b, 0x14, 0x2c, 0x3d, 0x56, 0x12, 0x03, 0xbe, 0x0a, 0xc1, 0xd0, 0xbd,
  0x49, 0x01, 0x2f, 0xbe, 0xca, 0xa5, 0x9d, 0xbd, 0x77, 0xb5, 0x8a, 0xbd,
  0xa4, 0x25, 0xc6, 0x3c, 0x0a, 0x48, 0x00, 0x3e, 0xbe, 0x1f, 0x5b, 0x3d,
  0x1a, 0x40, 0x3b, 0xbe, 0x92, 0x9f, 0xc0, 0x3d, 0x93, 0x5b, 0xf7, 0xbc,
  0xdd, 0x4f, 0x40, 0xbd, 0x65, 0xf6, 0xd0, 0x3c, 0x19, 0x15, 0x18, 0x3e,
  0xb2, 0x9c, 0x45, 0xbe, 0x88, 0xb2, 0x0c, 0xbe, 0xc7, 0x23, 0x77, 0xbd,
  0x44, 0xc0, 0xfc, 0xbb, 0xc3, 0xc2, 0x60, 0xbe, 0x91, 0x16, 0x20, 0xbd,
  0x3b, 0xa8, 0x80, 0xbd, 0xc4, 0x8d, 0x24, 0xbe, 0xcc, 0x7e, 0x81, 0x3d,
  0x6f, 0xf4, 0x85, 0x3a, 0xf6, 0xe8, 0x4b, 0xbe, 0x95, 0x15, 0x10, 0x3e,
  0x9e, 0x3b, 0x74, 0xbe, 0x5a, 0x44, 0x38, 0x3e, 0x86, 0x24, 0x9d, 0x3d,
  0xdc, 0x54, 0xe3, 0x3d, 0xbc, 0xf5, 0x3c, 0x3e, 0x91, 0x20, 0xef, 0x3d,
  0x1f, 0xd4, 0x78, 0xbe, 0xa4, 0x11, 0x9a, 0x3d, 0x8d, 0xa4, 0x6d, 0xbe,
  0x59, 0xea, 0x1d, 0xbe, 0x43, 0xc6, 0x5d, 0xbe, 0x5c, 0x05, 0x89, 0xbe,
  0x08, 0x32, 0x7e, 0x3d, 0x71, 0x17, 0xcf, 0xbd, 0xda, 0xae, 0x37, 0x3d,
  0x1d, 0x11, 0x02, 0x3e, 0xb3, 0x49, 0x55, 0xbe, 0x7f, 0x6f, 0xd6, 0x3c,
  0x4b, 0xe3, 0x04, 0xbe, 0x30, 0x71, 0x1b, 0xbc, 0xe5, 0x37, 0x36, 0x3e,
  0x9e, 0xf4, 0x1d, 0xbc, 0x1c, 0xb2, 0x90, 0xbd, 0xcb, 0xa5, 0x4a, 0xbd,
  0xef, 0xac, 0xcf, 0x3d, 0x4b, 0xef, 0xee, 0xbd, 0x12, 0x46, 0x0f, 0xbe,
  0xfc, 0x02, 0x2f, 0xbe, 0xfe, 0x63, 0xca, 0xbd, 0x0e, 0x4b, 0xe3, 0xbd,
  0x4f, 0xac, 0x3b, 0x3d, 0x55, 0x01, 0x67, 0xbe, 0x55, 0x02, 0xeb, 0xbc,
  0xba, 0x2b, 0xf5, 0x3d, 0xb9, 0x66, 0x5a, 0xbe, 0xdc, 0x68, 0x64, 0xbd,
  0x1e, 0x2e, 0x42, 0xbe, 0x6d, 0x72, 0x3e, 0xbe, 0x0e, 0x24, 0x06, 0x3d,
  0x88, 0xef, 0x23, 0xbd, 0xdb, 0xbf, 0x9e, 0xbd, 0x9d, 0x92, 0x5b, 0xbe,
  0xd0, 0x32, 0xa2, 0x3d, 0x78, 0xd1, 0x5a, 0xbe, 0xd5, 0xea, 0xf5, 0xbd,
  0x65, 0x4f, 0xcd, 0x3d, 0x0a, 0xf9, 0x86, 0xbe, 0xb0, 0xa9, 0xea, 0x3d,
  0x37, 0xc5, 0xe0, 0xbc, 0xfa, 0x5d, 0xb2, 0x3b, 0xac, 0x69, 0x4b, 0xbd,
  0xef, 0x43, 0x57, 0x3e, 0x37, 0xa0, 0x6b, 0xbe, 0xb1, 0xa0, 0xbf, 0x3b,
  0xea, 0x4a, 0xa8, 0xbd, 0x0a, 0x18, 0x81, 0x3d, 0xc4, 0xc6, 0xa1, 0xbd,
  0x7a, 0x2e, 0x9b, 0xbe, 0xcb, 0x8a, 0xda, 0x3d, 0xda, 0xc9, 0x76, 0x3c,
  0x2e, 0x90, 0x5c, 0xbe, 0x7b, 0x34, 0x84, 0xbc, 0x4a, 0x3a, 0x84, 0xbd,
  0x78, 0x03, 0x30, 0xbe, 0x5d, 0x00, 0x20, 0xbe, 0xd0, 0x81, 0x35, 0x3c,
  0x0e, 0x4b, 0x31, 0x3e, 0x3e, 0x35, 0xd0, 0x3d, 0x28, 0xf9, 0x2c, 0xbe,
  0xd2, 0x3c, 0x6a, 0xbe, 0x1a, 0xdf, 0xa8, 0x3c, 0x48, 0xf2, 0x19, 0x3c,
  0x3d, 0x51, 0x1a, 0x3c, 0xd5, 0x50, 0x42, 0xbe, 0x46, 0x2e, 0x88, 0xbe,
  0x86, 0x8b, 0x89, 0xbd, 0x7e, 0x30, 0xb2, 0x3d, 0x9d, 0x76, 0x37, 0xbe,
  0x64, 0xb5, 0x3a, 0xbe, 0x81, 0x11, 0x8f, 0xbd, 0xd7, 0x46, 0x08, 0x3e,
  0xa1, 0xb6, 0xac, 0xbc, 0xf2, 0xb8, 0x0f, 0xbe, 0x1a, 0x1d, 0x72, 0xbb,
  0xcf, 0x09, 0x35, 0xbe, 0x17, 0xa5, 0x07, 0x3e, 0x01, 0x4f, 0x05, 0xbf,
  0x7b, 0xfa, 0xb0, 0xbe, 0x46, 0xab, 0x8a, 0xbe, 0x03, 0x44, 0x05, 0xbd,
  0xd0, 0x00, 0x9a, 0xbe, 0xac, 0x36, 0x87, 0x3e, 0xb9, 0x17, 0x0a, 0xbc,
  0xc4, 0xc1, 0x2a, 0x3e, 0x94, 0x13, 0x30, 0x3d, 0xfb, 0xf2, 0xa0, 0xbe,
  0x1a, 0x5a, 0x4f, 0xbe, 0xd6, 0xdc, 0xe8, 0xbe, 0x37, 0x28, 0xe4, 0xbd,
  0x79, 0x68, 0xbc, 0x3e, 0xde, 0x0c, 0x0d, 0xbe, 0x17, 0x95, 0xc9, 0xbd,
  0xf1, 0xb8, 0xc3, 0xbe, 0x9b, 0x51, 0x04, 0x3e, 0xce, 0x62, 0xeb, 0xbd,
  0x40, 0x9f, 0xcd, 0x3d, 0x71, 0x7c, 0xa5, 0xbe, 0xb5, 0xfe, 0x9a, 0x3e,
  0xb3, 0xc3, 0xa6, 0x3e, 0x4f, 0x75, 0xba, 0x3d, 0xd2, 0xcf, 0x29, 0x3e,
  0xb2, 0x47, 0x95, 0xbe, 0x61, 0x59, 0x63, 0xbe, 0x15, 0x8f, 0x1a, 0xbe,
  0x1b, 0x6c, 0x11, 0x3f, 0x79, 0x66, 0x78, 0x3e, 0xaf, 0x57, 0xf1, 0xbd,
  0x5d, 0xf6, 0x16, 0x3e, 0x87, 0x96, 0x02, 0xbf, 0xdb, 0xff, 0x87, 0x3d,
  0x4c, 0xf5, 0x22, 0xbe, 0xbf, 0xe8, 0xa7, 0x3d, 0xe5, 0xde, 0x8d, 0x3d,
  0x43, 0x57, 0x0a, 0x3c, 0x97, 0xf6, 0x85, 0x3e, 0xc0, 0xe4, 0x3e, 0x3d,
  0x6e, 0xe2, 0x4c, 0x3c, 0x4c, 0x81, 0x5a, 0x3d, 0xf4, 0xb5, 0x94, 0xbe,
  0x80, 0xfd, 0x86, 0xbe, 0x49, 0x46, 0x8d, 0x3e, 0x2f, 0x27, 0xc8, 0x3d,
  0x43, 0xba, 0x52, 0x3e, 0x55, 0x33, 0xc8, 0xbd, 0x95, 0x2e, 0x94, 0xbe,
  0x36, 0x9e, 0xfc, 0x3d, 0xe7, 0xfe, 0x5c, 0xbe, 0x89, 0xb5, 0x81, 0x3d,
  0xdc, 0xe0, 0x6c, 0xbd, 0x5c, 0xc7, 0x7f, 0xbc, 0x08, 0x6a, 0x8a, 0xbd,
  0x20, 0xa5, 0x1b, 0x3d, 0xfc, 0x2d, 0x8d, 0x3d, 0xd6, 0x96, 0x37, 0x3e,
  0x57, 0x2c, 0x94, 0xbe, 0x9a, 0x05, 0x84, 0xbe, 0xbc, 0x51, 0x16, 0x3f,
  0x0b, 0x86, 0x81, 0x3d, 0x18, 0x4c, 0xf9, 0x3d, 0x3a, 0x1d, 0x62, 0xbe,
  0x3d, 0x61, 0x9f, 0xbe, 0x1e, 0x36, 0x19, 0x3b, 0x02, 0xc3, 0x37, 0xbe,
  0x41, 0x58, 0xa4, 0x3d, 0x90, 0xf2, 0x80, 0xbe, 0xae, 0x06, 0x0d, 0x3e,
  0xb5, 0x27, 0x68, 0x3e, 0x8a, 0x55, 0x53, 0x3d, 0xf6, 0x10, 0x3e, 0x3d,
  0xa0, 0x2a, 0x39, 0x3e, 0x81, 0x69, 0xb3, 0xbe, 0x1b, 0xf0, 0x55, 0xbe,
  0x7f, 0xea, 0x03, 0x3f, 0x08, 0xc2, 0x96, 0x3d, 0x94, 0xee, 0x3a, 0x3d,
  0xc9, 0x29, 0xbc, 0xbd, 0xfd, 0x2d, 0x00, 0xbf, 0xdb, 0x97, 0x3b, 0xbc,
  0x01, 0xc0, 0xb1, 0xbe, 0x84, 0xde, 0xbf, 0x3d, 0xd1, 0xfe, 0x80, 0xbe,
  0x3a, 0xe9, 0x64, 0x3e, 0xbf, 0xac, 0x93, 0x3e, 0xb2, 0xc8, 0xe4, 0xbc,
  0x39, 0x38, 0xc2, 0xbc, 0x55, 0x58, 0x00, 0xbe, 0x69, 0x97, 0x0b, 0xbf,
  0xd0, 0x5c, 0x00, 0xbf, 0xf5, 0xd3, 0x81, 0x3e, 0x07, 0xbb, 0xce, 0xbc,
  0x8d, 0xcb, 0x48, 0x3e, 0x19, 0xaf, 0xf7, 0xbe, 0x02, 0xd5, 0x63, 0xbe,
  0xb9, 0xfc, 0x59, 0x3d, 0xc9, 0x90, 0xe1, 0x3b, 0xa7, 0x8e, 0xba, 0x3c,
  0xe0, 0x18, 0x11, 0xbe, 0x90, 0x5f, 0xea, 0x3d, 0x2b, 0x6b, 0x2a, 0xbe,
  0x61, 0x92, 0xdf, 0xbc, 0x8b, 0x80, 0xb5, 0xbc, 0xf5, 0xd9, 0xe6, 0x3c,
  0x20, 0x97, 0xc8, 0xbd, 0x6c, 0x3f, 0x95, 0x3c, 0xe0, 0xde, 0x86, 0xbd,
  0xe9, 0xf7, 0x81, 0xbe, 0x28, 0x8d, 0x1b, 0x3e, 0x2b, 0x26, 0x82, 0xbe,
  0x8b, 0x85, 0x98, 0xbe, 0x74, 0x02, 0xf1, 0xbe, 0x2b, 0xd3, 0x58, 0xbf,
  0x4e, 0x6f, 0x8e, 0xbe, 0xbd, 0x23, 0x99, 0xbe, 0x9d, 0xd1, 0x9e, 0xbd,
  0xe4, 0x01, 0xaa, 0xbe, 0x00, 0x4a, 0xf1, 0xbe, 0x99, 0x13, 0x94, 0xbb,
  0xe0, 0x03, 0x95, 0xbe, 0xf2, 0x2e, 0x4c, 0xbe, 0x06, 0x23, 0x80, 0xbe,
  0x16, 0x89, 0xfe, 0xbd, 0x51, 0xc5, 0x7d, 0xbe, 0xc5, 0xe8, 0x20, 0xbe,
  0x08, 0x53, 0x9c, 0x3d, 0x19, 0x4c, 0x35, 0xbe, 0x13, 0xb8, 0x12, 0xbf,
  0xb7, 0x9f, 0x87, 0xbe, 0x0c, 0xb2, 0x27, 0xbe, 0x5d, 0x06, 0xa9, 0xbe,
  0x35, 0xb1, 0x9d, 0xbe, 0xd4, 0x46, 0xd3, 0xbc, 0x3b, 0x81, 0xe9, 0xbe,
  0x66, 0xeb, 0xd8, 0x3d, 0x6f, 0xe3, 0xd5, 0xbd, 0x7a, 0x3f, 0xa3, 0xbe,
  0xae, 0x1f, 0x9f, 0xbe, 0x2e, 0x9a, 0xbf, 0x3c, 0x7a, 0x92, 0x79, 0xbd,
  0x2a, 0xcf, 0x21, 0xbe, 0x25, 0x43, 0xe9, 0xbc, 0xe5, 0x60, 0x92, 0xbe,
  0x9e, 0x0c, 0xe0, 0xbe, 0xe2, 0x3f, 0x60, 0xbd, 0x9d, 0x9a, 0x64, 0xbe,
  0xc2, 0x56, 0xe5, 0xbe, 0xaf, 0xfd, 0x47, 0xbd, 0x6c, 0x67, 0x32, 0xbe,
  0x9e, 0xb6, 0x09, 0xbf, 0x0d, 0x97, 0x45, 0x3d, 0x85, 0x19, 0xe6, 0xbc,
  0xea, 0xaf, 0x1e, 0xbe, 0x7d, 0x97, 0xd0, 0xbd, 0xdc, 0x3f, 0xc3, 0xbd,
  0xb5, 0xc3, 0x80, 0xbe, 0x7e, 0x7b, 0x73, 0x3d, 0xb1, 0xc4, 0x2f, 0xbe,
  0x4a, 0x9e, 0xd5, 0xbe, 0x93, 0x2d, 0xe5, 0xbe, 0xbe, 0x04, 0xb6, 0xbe,
  0x0c, 0x44, 0x66, 0xbe, 0xdd, 0x83, 0x9d, 0xbe, 0x89, 0x71, 0xe4, 0x3d,
  0xa1, 0x82, 0x84, 0xbe, 0x0a, 0x5b, 0xea, 0xbe, 0xe5, 0xb9, 0x2a, 0xbd,
  0x20, 0xba, 0x34, 0xbe, 0x0f, 0xe8, 0x53, 0xbf, 0xd5, 0x46, 0x32, 0xbe,
  0x5b, 0x40, 0xdb, 0xbe, 0xae, 0x29, 0x04, 0xbe, 0x43, 0x6a, 0xf8, 0x3d,
  0xc4, 0xcf, 0xf6, 0xbc, 0x85, 0x1e, 0x3e, 0x3e, 0xf8, 0xd5, 0x50, 0xbd,
  0x0f, 0xba, 0xf9, 0x3c, 0x34, 0xa2, 0x36, 0xbe, 0x6a, 0xc1, 0xfd, 0xbe,
  0xcf, 0xe8, 0x58, 0xba, 0xc5, 0x23, 0xe5, 0xbc, 0xec, 0x58, 0xb8, 0xbe,
  0x4a, 0x33, 0xaf, 0xbd, 0x6a, 0x93, 0x68, 0x3e, 0x66, 0xc3, 0x9d, 0x3d,
  0x9f, 0xe1, 0x95, 0xbd, 0xe1, 0x93, 0x27, 0x3b, 0x57, 0x53, 0x6a, 0xbe,
  0xd3, 0xd7, 0x5b, 0xbe, 0xa2, 0x03, 0xac, 0x3e, 0xbc, 0xab, 0x50, 0x3d,
  0x4d, 0xa2, 0x46, 0xbe, 0x89, 0x12, 0x9d, 0x3d, 0xa8, 0x06, 0x23, 0xbb,
  0x3c, 0x7d, 0xc9, 0xbd, 0xd2, 0x51, 0x8b, 0xbd, 0x69, 0xe9, 0xf0, 0x3d,
  0xfd, 0xbb, 0xad, 0xbe, 0x0c, 0xb8, 0x8b, 0xbd, 0x68, 0xf8, 0xa4, 0x3e,
  0x96, 0x63, 0xde, 0xbc, 0xb0, 0x4f, 0xdf, 0xbd, 0xcd, 0xd2, 0x9c, 0x3d,
  0x41, 0x74, 0xed, 0xbe, 0x2d, 0x13, 0x69, 0x3e, 0x75, 0xb4, 0x90, 0x3e,
  0x8c, 0x4b, 0xfa, 0x3d, 0x15, 0x67, 0x4f, 0x3e, 0x38, 0x0b, 0xf9, 0x3d,
  0x93, 0xdb, 0x3c, 0x3e, 0x35, 0x79, 0xac, 0xbd, 0x92, 0x99, 0xc3, 0xbd,
  0x77, 0xcb, 0xb2, 0xbd, 0x1b, 0xe5, 0x02, 0xbe, 0x41, 0xc7, 0x74, 0x3d,
  0xa8, 0xa1, 0x3d, 0x3d, 0x34, 0xb7, 0x07, 0x3e, 0xe9, 0x67, 0x11, 0xbe,
  0xaf, 0xf1, 0xc2, 0x3d, 0x9c, 0x52, 0xab, 0x3d, 0xb4, 0xcf, 0xf3, 0x3d,
  0x02, 0x09, 0xa1, 0x3e, 0x36, 0xc5, 0x7b, 0xbe, 0x94, 0x6a, 0xfc, 0xbd,
  0x85, 0x6a, 0x56, 0xbe, 0x83, 0xde, 0x50, 0xbe, 0x1a, 0xd2, 0x36, 0x3d,
  0x09, 0x6d, 0xcf, 0xbd, 0x32, 0xea, 0xfa, 0x3d, 0x9d, 0x6c, 0x73, 0x3d,
  0xa9, 0xf6, 0x8b, 0xbd, 0xf8, 0x7c, 0x11, 0xbd, 0x39, 0x16, 0x03, 0xbe,
  0x05, 0xc7, 0xe7, 0x3d, 0xc5, 0xae, 0x1a, 0x3e, 0x69, 0x12, 0x2c, 0x3e,
  0x16, 0x26, 0x53, 0xbc, 0x42, 0x6f, 0xd0, 0x3d, 0xc8, 0xe3, 0x8e, 0x3c,
  0x3d, 0x14, 0x60, 0x3d, 0x34, 0x40, 0x0f, 0x3d, 0xc3, 0x83, 0x91, 0xbe,
  0x9d, 0x96, 0x6f, 0xbd, 0x62, 0xb6, 0x18, 0xbd, 0xd2, 0x62, 0xbd, 0xbd,
  0xdf, 0xa7, 0x8d, 0xbc, 0xa8, 0x22, 0xc6, 0xbc, 0x19, 0x35, 0x4c, 0xbe,
  0x29, 0xd2, 0x95, 0xbc, 0x13, 0x85, 0x2d, 0x3e, 0x83, 0xe6, 0x15, 0x3e,
  0x23, 0x66, 0x99, 0xbd, 0xcc, 0xec, 0x1d, 0xbe, 0xa3, 0xf8, 0x41, 0x3e,
  0xba, 0x9c, 0xa4, 0xbd, 0xde, 0xd9, 0xeb, 0x3d, 0x55, 0x31, 0x55, 0x3d,
  0x4d, 0xd4, 0x81, 0x3c, 0xa1, 0x36, 0x38, 0xbe, 0x2a, 0x03, 0x00, 0x3e,
  0xc1, 0x26, 0x10, 0x3d, 0x9f, 0x95, 0x63, 0xbe, 0x57, 0xe8, 0x2c, 0xbd,
  0x95, 0xfb, 0xd9, 0x3d, 0x70, 0x41, 0xea, 0x3c, 0xc8, 0xf7, 0x4e, 0x3e,
  0xfa, 0x44, 0x2b, 0xbe, 0x68, 0xf3, 0x09, 0xbe, 0xd9, 0xae, 0x47, 0x3c,
  0x66, 0x83, 0xdd, 0xbc, 0xcf, 0xf0, 0x08, 0xbe, 0xcb, 0xf6, 0xeb, 0xbd,
  0xf8, 0x53, 0x61, 0xbe, 0x1d, 0xe8, 0x58, 0xbe, 0x6a, 0xe0, 0x03, 0x3e,
  0xe5, 0xc6, 0x3d, 0x3e, 0x7c, 0x0e, 0x4c, 0x3d, 0x53, 0x43, 0x1e, 0x3c,
  0x71, 0xf6, 0x8d, 0xbe, 0x81, 0xfa, 0x3a, 0x3e, 0x53, 0x39, 0x56, 0xbd,
  0xd9, 0x48, 0x04, 0x3e, 0xcf, 0x0c, 0xb3, 0xbc, 0xc7, 0x2c, 0xb8, 0xbd,
  0x26, 0x9c, 0x1e, 0xbe, 0xaf, 0x36, 0x36, 0x3e, 0x94, 0xb0, 0x0a, 0xbe,
  0x09, 0x26, 0xe2, 0xbd, 0xec, 0xac, 0x54, 0xbe, 0xd2, 0x1c, 0xbf, 0xbd,
  0x35, 0x07, 0x3e, 0xbd, 0x15, 0x18, 0xc2, 0x3c, 0xce, 0x57, 0xe0, 0x3c,
  0x83, 0xfd, 0x5b, 0xbe, 0x34, 0xd3, 0x72, 0xbe, 0xa5, 0x7b, 0x84, 0x3d,
  0xa0, 0x86, 0x42, 0xbe, 0x54, 0xa6, 0x22, 0x3e, 0x00, 0x2a, 0xc7, 0xbd,
  0x77, 0x0b, 0x42, 0x3d, 0x48, 0x44, 0x88, 0xbd, 0xf4, 0x86, 0xaf, 0xbd,
  0x6b, 0x0c, 0x3d, 0xbe, 0x70, 0x29, 0x83, 0xbc, 0x15, 0x8b, 0xa8, 0x3d,
  0xb5, 0xcb, 0x67, 0xbe, 0xc6, 0x0f, 0x44, 0xbe, 0x3f, 0x83, 0x56, 0xbe,
  0xdf, 0x1d, 0xe7, 0x3d, 0xcb, 0xcc, 0xb2, 0xb8, 0x86, 0xd9, 0x88, 0xbe,
  0x31, 0x42, 0x8c, 0x3d, 0xbc, 0xa3, 0xb9, 0xbd, 0xd6, 0xcb, 0x30, 0xbe,
  0x5e, 0x17, 0x35, 0x3e, 0xe6, 0x77, 0x40, 0xbe, 0x36, 0x30, 0x2a, 0xbe,
  0x4c, 0x9a, 0x47, 0xbe, 0x23, 0xbf, 0xe1, 0x3b, 0x5d, 0x7a, 0x2f, 0x3c,
  0xef, 0x7c, 0x85, 0x3d, 0xeb, 0xc6, 0x99, 0xbe, 0x89, 0x45, 0x97, 0xbd,
  0x07, 0xd8, 0x98, 0x3d, 0x7c, 0xc6, 0x24, 0xbe, 0x38, 0xc2, 0x87, 0xbe,
  0x85, 0x32, 0x9d, 0xbe, 0x32, 0xcd, 0x36, 0x3d, 0x16, 0xf1, 0x34, 0xbd,
  0x49, 0x01, 0x54, 0xbe, 0x6a, 0xa5, 0xce, 0x3d, 0xc3, 0x9a, 0xf7, 0x3a,
  0xf9, 0xfd, 0x22, 0xbe, 0xe8, 0xd3, 0x90, 0xbc, 0xb5, 0xd0, 0x0b, 0x3e,
  0x74, 0xfe, 0xfa, 0xbc, 0xa5, 0x4b, 0xc8, 0x3d, 0x10, 0x9e, 0xe9, 0xbd,
  0x41, 0xff, 0x6b, 0xbd, 0x6b, 0x43, 0x22, 0xbf, 0x8e, 0x3f, 0x25, 0x3d,
  0x0d, 0xef, 0xc5, 0xbe, 0xbb, 0xb4, 0x14, 0x3e, 0x60, 0x7f, 0xa7, 0x3e,
  0xee, 0xb0, 0x6b, 0x3d, 0x27, 0x11, 0x3b, 0xbe, 0x60, 0x47, 0x1e, 0x3e,
  0xa9, 0xb6, 0xf2, 0x3d, 0xbf, 0xd2, 0xbd, 0x3e, 0x8b, 0x64, 0x78, 0x3e,
  0x89, 0x55, 0xf1, 0x3c, 0xde, 0x25, 0x50, 0x3e, 0x60, 0x54, 0x14, 0x3e,
  0xab, 0xf2, 0xfb, 0xbc, 0x8b, 0xfd, 0x19, 0xbd, 0xec, 0xf3, 0x52, 0xbe,
  0x2a, 0x30, 0x4a, 0x3e, 0x72, 0x76, 0x0b, 0xbe, 0xba, 0x56, 0xd7, 0x3c,
  0x14, 0xa2, 0x08, 0xbc, 0x1b, 0xc5, 0x0a, 0x3d, 0x22, 0xe8, 0x0d, 0x3d,
  0xb7, 0x4c, 0xb8, 0xbd, 0xa7, 0xc0, 0x64, 0xbe, 0x96, 0x4a, 0xb4, 0x3d,
  0x3b, 0x5b, 0x04, 0xbe, 0x4c, 0x6c, 0x5c, 0xbe, 0x06, 0x38, 0x15, 0xbd,
  0xaa, 0x66, 0x05, 0xbf, 0xa4, 0x9a, 0x31, 0x3d, 0x7e, 0xe7, 0x3d, 0x3e,
  0x7b, 0x82, 0xf5, 0x3b, 0x5a, 0xa7, 0x27, 0xbe, 0x13, 0xd0, 0x40, 0x3d,
  0xbf, 0xde, 0x03, 0xbe, 0xcb, 0x30, 0x9e, 0x3d, 0x33, 0xee, 0x20, 0xbf,
  0x26, 0x4e, 0x64, 0xbd, 0x13, 0x4c, 0xd9, 0xbe, 0x98, 0x50, 0x42, 0xbe,
  0x9e, 0x6a, 0xc0, 0x3d, 0x6b, 0xd7, 0xe6, 0xbd, 0x6e, 0x30, 0x46, 0xbf,
  0x72, 0xff, 0xb4, 0xbe, 0x89, 0x4b, 0x3b, 0xbf, 0x7d, 0xaa, 0x21, 0xbd,
  0x54, 0xc4, 0x88, 0xbe, 0xf3, 0xf9, 0x4d, 0x3d, 0x97, 0x4e, 0xc2, 0xbd,
  0x58, 0x98, 0x36, 0xbc, 0xcf, 0x52, 0x5c, 0xbe, 0x94, 0x6a, 0x24, 0xbe,
  0x48, 0xc9, 0x2a, 0xbf, 0x66, 0x51, 0xa9, 0xbe, 0x4e, 0xae, 0x60, 0xbe,
  0x78, 0xbe, 0x94, 0x39, 0x34, 0xb0, 0x1a, 0xbd, 0x65, 0x25, 0xcf, 0xbe,
  0x9b, 0xe7, 0xff, 0xbe, 0x67, 0xbf, 0x25, 0xbe, 0x96, 0x20, 0xb0, 0xbe,
  0x5a, 0x36, 0xe2, 0xbd, 0xea, 0xd5, 0x92, 0xbe, 0x43, 0x73, 0x8c, 0x3d,
  0x48, 0x09, 0xb3, 0xbe, 0x27, 0x35, 0xaf, 0x3c, 0x43, 0x86, 0x20, 0xbe,
  0xeb, 0x0c, 0x55, 0xbe, 0x8c, 0xe3, 0x20, 0xbe, 0x7f, 0x20, 0x40, 0x3d,
  0xa7, 0x13, 0x20, 0xbe, 0xbd, 0xec, 0x0e, 0x3e, 0xc0, 0x36, 0x70, 0xbd,
  0x6b, 0x15, 0x83, 0x3e, 0x85, 0xe1, 0x27, 0x3e, 0x83, 0xf8, 0x09, 0xbc,
  0x58, 0x2d, 0xf3, 0xbd, 0x0a, 0xd9, 0x9d, 0xbd, 0xfd, 0xf3, 0x9a, 0xbe,
  0x07, 0x93, 0x65, 0xbe, 0xd8, 0x4d, 0x14, 0xbe, 0x61, 0xc4, 0x04, 0xbd,
  0x6f, 0xe8, 0x07, 0xbe, 0x9d, 0x20, 0x9b, 0x3e, 0x8e, 0x7d, 0x3e, 0xbd,
  0xdd, 0xf1, 0x4b, 0xbd, 0x63, 0xfb, 0x3e, 0x3e, 0xca, 0xef, 0xe3, 0xbd,
  0x9f, 0xbd, 0x23, 0xbe, 0x37, 0xd2, 0xb4, 0x3e, 0xc9, 0x75, 0x24, 0x3d,
  0xc5, 0xc0, 0xcb, 0x3c, 0x24, 0x72, 0x80, 0x3d, 0x61, 0x36, 0xa7, 0x3c,
  0x57, 0xe0, 0x57, 0xbd, 0xb1, 0x90, 0x80, 0xbc, 0x26, 0xf8, 0xaa, 0x3d,
  0xf1, 0x62, 0x9a, 0x3d, 0x5c, 0x87, 0x52, 0xbc, 0xca, 0xf4, 0x16, 0x3e,
  0x12, 0x26, 0x92, 0xbc, 0x0a, 0xf5, 0xa4, 0xbd, 0xc2, 0x87, 0x7b, 0x3e,
  0x96, 0x48, 0xc8, 0xbd, 0xa1, 0x17, 0x63, 0xbd, 0x39, 0x78, 0xcb, 0x3e,
  0x66, 0xfd, 0xff, 0xff, 0x10, 0x00, 0x00, 0x00, 0x07, 0x00, 0x00, 0x00,
  0x14, 0x00, 0x00, 0x00, 0x2c, 0x00, 0x00, 0x00, 0x02, 0x00, 0x00, 0x00,
  0x10, 0x00, 0x00, 0x00, 0x70, 0x00, 0x00, 0x00, 0x17, 0x00, 0x00, 0x00,
  0x73, 0x65, 0x71, 0x75, 0x65, 0x6e, 0x74, 0x69, 0x61, 0x6c, 0x2f, 0x64,
  0x65, 0x6e, 0x73, 0x65, 0x2f, 0x4d, 0x61, 0x74, 0x4d, 0x75, 0x6c, 0x00,
  0xd0, 0xfc, 0xff, 0xff, 0xda, 0xfd, 0xff, 0xff, 0x04, 0x00, 0x00, 0x00,
  0x08, 0x00, 0x00, 0x00, 0xff, 0xff, 0xff, 0xff, 0x70, 0x00, 0x00, 0x00,
  0x00, 0x00, 0x0e, 0x00, 0x18, 0x00, 0x08, 0x00, 0x07, 0x00, 0x0c, 0x00,
  0x10, 0x00, 0x14, 0x00, 0x0e, 0x00, 0x00, 0x00, 0x00, 0x00, 0x00, 0x02,
  0x10, 0x00, 0x00, 0x00, 0x06, 0x00, 0x00, 0x00, 0x10, 0x00, 0x00, 0x00,
  0x2c, 0x00, 0x00, 0x00, 0x01, 0x00, 0x00, 0x00, 0x02, 0x00, 0x00, 0x00,
  0x18, 0x00, 0x00, 0x00, 0x73, 0x65, 0x71, 0x75, 0x65, 0x6e, 0x74, 0x69,
  0x61, 0x6c, 0x2f, 0x66, 0x6c, 0x61, 0x74, 0x74, 0x65, 0x6e, 0x2f, 0x43,
  0x6f, 0x6e, 0x73, 0x74, 0x00, 0x00, 0x00, 0x00, 0x38, 0xfd, 0xff, 0xff,
  0x42, 0xfe, 0xff, 0xff, 0x04, 0x00, 0x00, 0x00, 0x0c, 0x00, 0x00, 0x00,
  0x81, 0x1f, 0x81, 0x3f, 0x16, 0xb3, 0xd1, 0xbf, 0x5a, 0x9a, 0xdb, 0xbe,
  0x26, 0xfe, 0xff, 0xff, 0x10, 0x00, 0x00, 0x00, 0x05, 0x00, 0x00, 0x00,
  0x10, 0x00, 0x00, 0x00, 0x44, 0x00, 0x00, 0x00, 0x01, 0x00, 0x00, 0x00,
  0x03, 0x00, 0x00, 0x00, 0x32, 0x00, 0x00, 0x00, 0x73, 0x65, 0x71, 0x75,
  0x65, 0x6e, 0x74, 0x69, 0x61, 0x6c, 0x2f, 0x64, 0x65, 0x6e, 0x73, 0x65,
  0x5f, 0x31, 0x2f, 0x42, 0x69, 0x61, 0x73, 0x41, 0x64, 0x64, 0x2f, 0x52,
  0x65, 0x61, 0x64, 0x56, 0x61, 0x72, 0x69, 0x61, 0x62, 0x6c, 0x65, 0x4f,
  0x70, 0x2f, 0x72, 0x65, 0x73, 0x6f, 0x75, 0x72, 0x63, 0x65, 0x00, 0x00,
  0xa8, 0xfd, 0xff, 0xff, 0xb2, 0xfe, 0xff, 0xff, 0x04, 0x00, 0x00, 0x00,
  0x40, 0x00, 0x00, 0x00, 0x64, 0x9b, 0x21, 0x3c, 0x7e, 0xaa, 0xb3, 0xbe,
  0xa8, 0x46, 0xbc, 0xbe, 0xa9, 0xa1, 0x3b, 0xbe, 0x95, 0x90, 0x86, 0xbb,
  0xc1, 0x11, 0xfb, 0xbf, 0xbb, 0x91, 0x21, 0xbe, 0xab, 0x93, 0xcf, 0xbd,
  0xf8, 0x51, 0x87, 0xbf, 0x54, 0xeb, 0xc5, 0xbe, 0xaa, 0x3a, 0x15, 0xbe,
  0xe2, 0xf8, 0x12, 0xbe, 0xfd, 0x4f, 0x51, 0x3c, 0xfb, 0xcd, 0x0a, 0xbf,
  0x29, 0x3e, 0xbe, 0xbd, 0xa3, 0x96, 0xb1, 0xbf, 0xca, 0xfe, 0xff, 0xff,
  0x10, 0x00, 0x00, 0x00, 0x04, 0x00, 0x00, 0x00, 0x10, 0x00, 0x00, 0x00,
  0x44, 0x00, 0x00, 0x00, 0x01, 0x00, 0x00, 0x00, 0x10, 0x00, 0x00, 0x00,
  0x30, 0x00, 0x00, 0x00, 0x73, 0x65, 0x71, 0x75, 0x65, 0x6e, 0x74, 0x69,
  0x61, 0x6c, 0x2f, 0x64, 0x65, 0x6e, 0x73, 0x65, 0x2f, 0x42, 0x69, 0x61,
  0x73, 0x41, 0x64, 0x64, 0x2f, 0x52, 0x65, 0x61, 0x64, 0x56, 0x61, 0x72,
  0x69, 0x61, 0x62, 0x6c, 0x65, 0x4f, 0x70, 0x2f, 0x72, 0x65, 0x73, 0x6f,
  0x75, 0x72, 0x63, 0x65, 0x00, 0x00, 0x00, 0x00, 0x4c, 0xfe, 0xff, 0xff,
  0x56, 0xff, 0xff, 0xff, 0x04, 0x00, 0x00, 0x00, 0x40, 0x00, 0x00, 0x00,
  0xa9, 0x77, 0x15, 0xc0, 0x71, 0xbd, 0x5d, 0x3d, 0x33, 0x28, 0x22, 0xc0,
  0x17, 0x75, 0x2a, 0x3d, 0x41, 0xdc, 0x14, 0xc0, 0xfd, 0x1d, 0xb9, 0xbd,
  0x21, 0x51, 0x30, 0x3d, 0x5c, 0x8f, 0x27, 0x3e, 0xc0, 0x13, 0xc4, 0xbe,
  0xcc, 0xe9, 0x9d, 0xbf, 0x8b, 0xba, 0xfe, 0xbf, 0x5e, 0x57, 0x9b, 0xbf,
  0x46, 0xdd, 0x01, 0xbe, 0x24, 0xcb, 0x16, 0xbd, 0x0d, 0xbc, 0x5d, 0x3c,
  0xb2, 0x56, 0x40, 0xbf, 0x6e, 0xff, 0xff, 0xff, 0x10, 0x00, 0x00, 0x00,
  0x03, 0x00, 0x00, 0x00, 0x10, 0x00, 0x00, 0x00, 0x48, 0x00, 0x00, 0x00,
  0x01, 0x00, 0x00, 0x00, 0x10, 0x00, 0x00, 0x00, 0x33, 0x00, 0x00, 0x00,
  0x73, 0x65, 0x71, 0x75, 0x65, 0x6e, 0x74, 0x69, 0x61, 0x6c, 0x2f, 0x63,
  0x6f, 0x6e, 0x76, 0x32, 0x64, 0x5f, 0x31, 0x2f, 0x42, 0x69, 0x61, 0x73,
  0x41, 0x64, 0x64, 0x2f, 0x52, 0x65, 0x61, 0x64, 0x56, 0x61, 0x72, 0x69,
  0x61, 0x62, 0x6c, 0x65, 0x4f, 0x70, 0x2f, 0x72, 0x65, 0x73, 0x6f, 0x75,
  0x72, 0x63, 0x65, 0x00, 0x04, 0x00, 0x06, 0x00, 0x04, 0x00, 0x00, 0x00,
  0x00, 0x00, 0x06, 0x00, 0x08, 0x00, 0x04, 0x00, 0x06, 0x00, 0x00, 0x00,
  0x04, 0x00, 0x00, 0x00, 0x20, 0x00, 0x00, 0x00, 0x4d, 0xe6, 0x77, 0xbd,
  0xb5, 0x4a, 0x16, 0xc0, 0x8d, 0xe7, 0x0c, 0xc0, 0xf4, 0xb7, 0x60, 0xbf,
  0xae, 0x9d, 0x11, 0x3f, 0xe0, 0xee, 0xbf, 0xbc, 0xc4, 0xfa, 0x23, 0xbf,
  0x4a, 0xf3, 0xd9, 0xbf, 0x00, 0x00, 0x0e, 0x00, 0x14, 0x00, 0x04, 0x00,
  0x00, 0x00, 0x08, 0x00, 0x0c, 0x00, 0x10, 0x00, 0x0e, 0x00, 0x00, 0x00,
  0x10, 0x00, 0x00, 0x00, 0x02, 0x00, 0x00, 0x00, 0x10, 0x00, 0x00, 0x00,
  0x44, 0x00, 0x00, 0x00, 0x01, 0x00, 0x00, 0x00, 0x08, 0x00, 0x00, 0x00,
  0x31, 0x00, 0x00, 0x00, 0x73, 0x65, 0x71, 0x75, 0x65, 0x6e, 0x74, 0x69,
  0x61, 0x6c, 0x2f, 0x63, 0x6f, 0x6e, 0x76, 0x32, 0x64, 0x2f, 0x42, 0x69,
  0x61, 0x73, 0x41, 0x64, 0x64, 0x2f, 0x52, 0x65, 0x61, 0x64, 0x56, 0x61,
  0x72, 0x69, 0x61, 0x62, 0x6c, 0x65, 0x4f, 0x70, 0x2f, 0x72, 0x65, 0x73,
  0x6f, 0x75, 0x72, 0x63, 0x65, 0x00, 0x00, 0x00, 0x90, 0xff, 0xff, 0xff,
  0x14, 0x00, 0x18, 0x00, 0x04, 0x00, 0x00, 0x00, 0x08, 0x00, 0x0c, 0x00,
  0x10, 0x00, 0x00, 0x00, 0x00, 0x00, 0x14, 0x00, 0x14, 0x00, 0x00, 0x00,
  0x14, 0x00, 0x00, 0x00, 0x01, 0x00, 0x00, 0x00, 0x20, 0x00, 0x00, 0x00,
  0x44, 0x00, 0x00, 0x00, 0x2c, 0x00, 0x00, 0x00, 0x04, 0x00, 0x00, 0x00,
  0x01, 0x00, 0x00, 0x00, 0x40, 0x00, 0x00, 0x00, 0x03, 0x00, 0x00, 0x00,
  0x01, 0x00, 0x00, 0x00, 0x0c, 0x00, 0x00, 0x00, 0x63, 0x6f, 0x6e, 0x76,
  0x32, 0x64, 0x5f, 0x69, 0x6e, 0x70, 0x75, 0x74, 0x00, 0x00, 0x00, 0x00,
  0x04, 0x00, 0x00, 0x00, 0xff, 0xff, 0xff, 0xff, 0x40, 0x00, 0x00, 0x00,
  0x03, 0x00, 0x00, 0x00, 0x01, 0x00, 0x00, 0x00, 0xfc, 0xff, 0xff, 0xff,
  0x04, 0x00, 0x04, 0x00, 0x04, 0x00, 0x00, 0x00
};

unsigned int model_tflite_len = 13052;// Fill the int in `src/model.cc` here